<unk>	0
<s>	0
</s>	0
,	-2.91132
.	-3.28909
▁je	-3.62175
▁v	-3.8272
▁in	-4.05373
▁na	-4.24344
▁za	-4.51602
▁se	-4.53936
▁da	-4.55044
▁so	-4.70739
a	-4.73041
▁ki	-4.83502
▁pa	-4.94964
▁z	-5.11589
i	-5.16504
▁s	-5.19122
▁tudi	-5.24418
▁po	-5.24764
m	-5.2519
▁ne	-5.26408
e	-5.30595
▁bo	-5.37955
:	-5.44925
▁bi	-5.49433
o	-5.50182
▁še	-5.55629
▁kot	-5.62958
u	-5.69999
h	-5.78613
▁o	-5.82726
▁ni	-5.83027
▁to	-5.84053
▁pri	-5.87853
▁iz	-5.88944
▁od	-5.89513
▁do	-5.93209
▁(	-5.97923
▁ko	-5.99116
▁že	-6.01852
▁lahko	-6.05227
jo	-6.11254
▁"	-6.12639
)	-6.13332
▁a	-6.15587
▁tako	-6.15615
▁med	-6.19735
▁več	-6.21444
▁ali	-6.26399
▁-	-6.27303
▁ga	-6.27476
▁ob	-6.30057
▁pred	-6.3125
na	-6.31478
▁bodo	-6.33722
▁,	-6.38488
▁kar	-6.38697
▁tem	-6.40062
ne	-6.40996
▁si	-6.41104
?	-6.43231
▁naj	-6.46184
ti	-6.46361
mi	-6.46443
om	-6.48565
▁jih	-6.49721
▁če	-6.51102
▁sta	-6.52378
no	-6.5241
▁bil	-6.52526
▁zaradi	-6.54183
▁»	-6.55983
▁vse	-6.5665
mo	-6.56891
ga	-6.58414
▁le	-6.5857
ni	-6.62107
▁sem	-6.65566
te	-6.69437
li	-6.70116
...	-6.70239
ja	-6.71573
▁jo	-6.73801
▁|	-6.74032
ih	-6.74477
▁saj	-6.75374
-	-6.76676
▁bila	-6.76759
▁smo	-6.77561
▁bilo	-6.78221
la	-6.78382
ov	-6.79853
▁ter	-6.79963
▁leta	-6.80664
▁ta	-6.84386
▁nekaj	-6.86403
▁.	-6.8728
s	-6.88669
l	-6.90438
▁–	-6.90706
!	-6.91915
▁sicer	-6.92939
▁danes	-6.93921
▁kaj	-6.99135
ta	-6.99413
▁zato	-7.0179
▁ker	-7.03404
▁evrov	-7.07559
si	-7.08053
▁zelo	-7.09427
▁kako	-7.10908
▁prav	-7.13741
ka	-7.15042
▁mu	-7.15911
▁proti	-7.19553
▁veliko	-7.19705
▁brez	-7.20473
▁tega	-7.20827
▁kjer	-7.21008
▁vedno	-7.21398
▁bolj	-7.2192
▁k	-7.22221
▁ima	-7.22727
▁mi	-7.22938
š	-7.24029
▁pod	-7.24243
,"	-7.25951
je	-7.26744
nih	-7.26992
v	-7.27897
▁gre	-7.31603
n	-7.33079
le	-7.33572
▁niso	-7.34687
▁zdaj	-7.35871
▁let	-7.3647
k	-7.36536
lo	-7.3844
▁samo	-7.40931
▁te	-7.42482
t	-7.42833
ur	-7.43166
▁ljudi	-7.43241
▁namreč	-7.43951
▁dan	-7.45028
nja	-7.45353
▁svoje	-7.46015
nje	-7.4617
c	-7.46306
ju	-7.48328
▁24	-7.49661
,«	-7.50874
▁bili	-7.51918
ca	-7.52396
nega	-7.54782
▁najbolj	-7.56215
▁prvi	-7.56901
▁dejal	-7.5789
j	-7.58751
▁pravi	-7.60516
▁nas	-7.61023
▁dobro	-7.6254
▁glede	-7.62588
▁drugi	-7.62752
ko	-7.642
foto	-7.64502
sko	-7.64575
ci	-7.66512
ce	-7.66675
▁...	-7.66682
▁nato	-7.67106
em	-7.68256
▁del	-7.68406
z	-7.6915
▁nad	-7.69788
▁okoli	-7.70488
▁ste	-7.70495
▁sloveniji	-7.71656
com	-7.71898
▁tri	-7.72303
▁me	-7.72449
▁potem	-7.72839
▁foto	-7.73053
ke	-7.73234
d	-7.736
"	-7.74617
/	-7.74936
▁strani	-7.75281
▁jim	-7.75527
▁dela	-7.75746
▁predsednik	-7.76607
ega	-7.77592
▁leto	-7.777
▁pre	-7.78272
jem	-7.78609
to	-7.79138
▁čas	-7.79349
ki	-7.80695
▁slovenije	-7.81556
▁boste	-7.82089
▁bomo	-7.82098
▁predvsem	-7.82824
ska	-7.83524
▁treba	-7.84778
▁celo	-7.84977
▁skupaj	-7.85073
▁res	-7.85358
▁svojo	-7.85513
▁	-7.85719
'	-7.86753
ski	-7.87056
st	-7.87604
▁vseh	-7.87788
▁ji	-7.87863
▁letih	-7.88778
ske	-7.89294
▁nam	-7.90479
▁manj	-7.90854
▁'	-7.91097
▁vendar	-7.91144
),	-7.91608
▁slovenija	-7.91961
▁ti	-7.92415
en	-7.92552
▁dva	-7.92706
▁čeprav	-7.92846
r	-7.93223
▁povedal	-7.93852
▁imajo	-7.94126
ma	-7.9421
▁oziroma	-7.94306
▁slovenskenovice	-7.94336
▁ampak	-7.94583
va	-7.95713
▁dni	-7.9677
▁času	-7.9736
▁ljubljana	-7.9876
▁mesto	-7.98783
▁vsi	-7.99151
▁dve	-7.99638
▁vas	-8.00819
▁letos	-8.00947
▁delo	-8.01559
▁poleg	-8.01935
▁novo	-8.02039
▁odstotkov	-8.02729
▁eno	-8.03367
se	-8.03489
▁časa	-8.0466
▁slovenski	-8.04716
▁lani	-8.04827
▁vam	-8.05657
▁seveda	-8.05724
▁biti	-8.06842
▁svetu	-8.07199
▁države	-8.08669
sti	-8.09449
▁pet	-8.09658
▁skoraj	-8.10408
ji	-8.10509
za	-8.11036
da	-8.11122
nju	-8.11148
▁svet	-8.11555
▁video	-8.12024
▁vsak	-8.12542
nem	-8.13624
▁medtem	-8.13876
."	-8.13883
▁d	-8.13988
▁kljub	-8.14592
ec	-8.14781
▁dnevnik	-8.15208
▁eu	-8.15268
po	-8.1529
▁vlada	-8.15393
).	-8.15422
▁takrat	-8.15732
p	-8.15868
▁“	-8.16018
mu	-8.16038
▁drugim	-8.16052
▁milijonov	-8.16701
▁kateri	-8.16717
▁niti	-8.1798
«	-8.18319
sta	-8.18342
▁pol	-8.18591
▁policisti	-8.18789
▁raz	-8.19215
▁mestu	-8.19445
▁imel	-8.19495
če	-8.19678
▁ljudje	-8.19775
b	-8.19864
▁pomeni	-8.2023
▁sam	-8.2026
▁nič	-8.2071
▁zda	-8.20738
;	-8.21009
▁mora	-8.21222
▁svoj	-8.21328
▁vsaj	-8.22354
▁življenje	-8.22603
g	-8.22948
▁de	-8.23316
▁zakaj	-8.23416
▁malo	-8.23501
re	-8.23608
▁sodišče	-8.24127
▁precej	-8.24442
.«	-8.2449
▁otrok	-8.25395
▁način	-8.25644
y	-8.25804
▁teh	-8.26087
▁novi	-8.268
▁ena	-8.26848
▁torej	-8.26849
▁pomoč	-8.26873
▁20	-8.27063
▁tam	-8.27203
ami	-8.27866
▁mogoče	-8.28106
▁konec	-8.28537
▁dveh	-8.28581
▁nove	-8.28661
▁naprej	-8.28684
▁kdo	-8.28979
▁pot	-8.29289
▁zadnjih	-8.29983
▁u	-8.30409
▁večer	-8.30809
skega	-8.30899
▁10	-8.30927
▁morda	-8.31055
▁leti	-8.31303
▁poti	-8.31557
▁drugih	-8.31973
24	-8.3223
▁policija	-8.33013
▁povsem	-8.33172
in	-8.33213
▁imeli	-8.33585
▁primeru	-8.33741
▁spet	-8.33759
▁katerem	-8.33897
ah	-8.34011
▁dovolj	-8.3412
▁letu	-8.34214
▁m	-8.34407
▁sploh	-8.34721
▁štiri	-8.35187
▁podjetja	-8.35215
2	-8.35892
▁nikoli	-8.36134
▁hitro	-8.36899
▁primer	-8.37102
▁eden	-8.37799
▁druge	-8.37838
▁vlade	-8.38125
č	-8.38153
skih	-8.38435
▁dr	-8.38643
▁čez	-8.39042
▁koncu	-8.39152
▁temu	-8.4025
▁prej	-8.406
▁en	-8.40779
▁teden	-8.41504
▁katerih	-8.41579
▁e	-8.41597
co	-8.41743
▁doma	-8.4176
▁morali	-8.41779
▁ljubljani	-8.42241
▁i	-8.4232
▁sveta	-8.42651
jev	-8.43816
ž	-8.43981
▁1	-8.44668
letni	-8.4467
▁nova	-8.44858
▁slovenske	-8.46152
vi	-8.4666
▁znova	-8.47073
▁maribor	-8.47613
▁tokrat	-8.47655
▁15	-8.47768
▁trenutno	-8.4777
di	-8.47907
▁milijona	-8.49282
sa	-8.49367
▁svojih	-8.49427
ku	-8.49494
de	-8.49773
▁predsednika	-8.49822
▁tu	-8.5069
do	-8.50881
▁težko	-8.51102
▁dodal	-8.52283
5	-8.52599
▁imela	-8.53481
▁delu	-8.53605
▁želi	-8.5363
▁težave	-8.53786
▁tekmi	-8.54071
▁deset	-8.54167
▁besedah	-8.54313
▁prvo	-8.54438
▁bile	-8.54846
ra	-8.54948
▁svojega	-8.55079
▁odstotka	-8.55355
▁zgolj	-8.55454
▁tisoč	-8.55482
ro	-8.55805
▁nisem	-8.55991
nim	-8.56095
▁sedaj	-8.56152
▁najprej	-8.56301
▁voljo	-8.56304
▁njimi	-8.56833
▁takoj	-8.56859
▁prek	-8.56879
1	-8.57177
▁katero	-8.57469
▁g	-8.57709
▁vprašanje	-8.57753
▁bom	-8.57883
▁vsem	-8.57918
▁slovenijo	-8.58046
jte	-8.58068
▁drugo	-8.58137
ve	-8.58939
▁jasno	-8.58981
▁moral	-8.59054
▁skupine	-8.59401
▁re	-8.59457
▁katere	-8.59648
f	-8.59675
▁njegov	-8.59911
▁stvari	-8.60021
▁la	-8.60027
▁odločitev	-8.6009
▁prvič	-8.60426
▁minister	-8.60459
▁včeraj	-8.60507
▁tej	-8.60544
▁šele	-8.60891
▁podjetje	-8.60899
▁mesta	-8.60974
▁sporočili	-8.60982
▁zurnal	-8.61433
▁ure	-8.61435
▁30	-8.61996
4	-8.63098
3	-8.63867
▁tisti	-8.64093
▁nov	-8.64323
▁pu	-8.64407
▁''	-8.64488
▁sistem	-8.64637
im	-8.64738
6	-8.64885
▁sds	-8.64947
▁novega	-8.65069
▁12	-8.65168
x	-8.65236
▁enega	-8.65395
▁1.	-8.65559
▁država	-8.65617
▁poroča	-8.65627
▁očitno	-8.65739
▁bosta	-8.65894
▁nekateri	-8.65935
▁približno	-8.6602
▁meni	-8.66069
▁:	-8.66267
▁težav	-8.66601
▁začetku	-8.66827
▁hkrati	-8.66895
▁šest	-8.66997
bi	-8.67072
▁dobil	-8.67182
▁19	-8.67643
▁2	-8.67743
▁največ	-8.68105
▁treh	-8.68416
▁toliko	-8.6847
▁pomembno	-8.68493
▁slovenskih	-8.68663
bo	-8.68903
▁njih	-8.69125
▁točk	-8.69129
▁sami	-8.6915
cev	-8.69212
pa	-8.69583
ba	-8.6968
▁dneh	-8.6987
▁katerega	-8.7004
kov	-8.7035
▁uri	-8.70351
▁drugega	-8.70481
▁ju	-8.70737
▁njegovo	-8.7096
▁družbe	-8.71121
▁verjetno	-8.712
▁državi	-8.71365
▁zmago	-8.71414
▁imamo	-8.71696
▁možnosti	-8.71757
▁močno	-8.7179
▁območju	-8.71987
nimi	-8.7202
▁pogosto	-8.72023
▁življenja	-8.72136
▁moški	-8.72165
▁število	-8.7232
▁3	-8.72591
7	-8.72668
▁t	-8.72807
▁ur	-8.72851
▁ves	-8.72979
▁velja	-8.73191
8	-8.73326
▁govori	-8.73552
▁stranke	-8.7368
▁naše	-8.73976
▁nekoliko	-8.74105
▁začel	-8.74141
▁prvem	-8.74805
▁njegova	-8.74869
▁našli	-8.74885
▁kdaj	-8.75159
▁vodi	-8.75215
▁denar	-8.75447
▁kmalu	-8.75568
▁svoji	-8.76105
vo	-8.76162
▁pojasnil	-8.76193
▁velika	-8.76285
▁slovenska	-8.76307
▁prva	-8.76609
▁začela	-8.76679
▁preveč	-8.76866
▁njim	-8.77097
▁ravno	-8.77208
či	-8.77235
▁maja	-8.78436
▁čim	-8.78767
▁uspelo	-8.78778
▁tekmo	-8.78839
▁denarja	-8.79182
▁zadnji	-8.7969
▁toda	-8.79702
▁posebej	-8.7978
▁dolgo	-8.79862
▁premier	-8.80511
▁on	-8.80896
▁18	-8.81164
▁ženske	-8.81297
▁nekdanji	-8.81324
▁direktor	-8.81346
▁skozi	-8.81458
▁konca	-8.81595
ova	-8.81618
9	-8.81736
▁13	-8.82024
▁vsako	-8.82051
▁ja	-8.82198
▁5	-8.8236
nik	-8.82484
▁izmed	-8.82603
▁možnost	-8.82649
▁petek	-8.82661
".	-8.82915
▁želijo	-8.83345
▁14	-8.83458
▁področju	-8.83593
▁more	-8.83866
▁novih	-8.83914
▁povedala	-8.84029
skem	-8.84067
▁morajo	-8.84073
lu	-8.84429
▁držav	-8.84851
▁sama	-8.85177
be	-8.8521
▁prišlo	-8.85244
cu	-8.85601
ev	-8.85638
še	-8.85771
▁oz	-8.85783
▁različnih	-8.8609
▁b	-8.86245
▁oblasti	-8.86341
▁vode	-8.86461
▁evropske	-8.86572
▁uprave	-8.86865
▁kaže	-8.86922
▁svojim	-8.87046
▁prve	-8.87113
▁doslej	-8.87148
▁šlo	-8.87183
▁no	-8.87207
0	-8.873
▁uro	-8.87506
▁nima	-8.87513
▁svojem	-8.87753
▁čaka	-8.87929
▁minut	-8.88047
▁enkrat	-8.88232
▁vozil	-8.88358
▁zakona	-8.88592
▁trump	-8.88635
▁zdravje	-8.88703
▁soboto	-8.88916
▁16	-8.88999
▁preko	-8.8901
▁vozila	-8.89026
▁njen	-8.89072
▁zagotovo	-8.89216
▁večina	-8.89236
▁poudaril	-8.8924
▁tedna	-8.89547
go	-8.9004
nu	-8.90069
▁prostor	-8.9018
w	-8.90356
▁sodišča	-8.90459
▁velik	-8.90869
▁sto	-8.90886
▁izjemno	-8.90904
▁začeli	-8.91024
▁koliko	-8.91183
tu	-8.91302
▁p	-8.91346
▁rok	-8.91407
▁najmanj	-8.91704
▁dobili	-8.91762
▁50	-8.91927
▁4	-8.92264
▁zgodilo	-8.92538
▁jaz	-8.92632
▁pro	-8.92917
▁zakon	-8.93098
▁sva	-8.93227
▁zdi	-8.93363
▁ponovno	-8.93645
nica	-8.9386
▁oglas	-8.94239
me	-8.9429
▁kasneje	-8.94379
▁morala	-8.94527
▁mar	-8.94541
od	-8.94557
▁pride	-8.94706
imi	-8.94782
▁stran	-8.94909
▁vodja	-8.95495
▁mnenju	-8.95683
▁metrov	-8.95723
▁cesti	-8.95857
▁prišel	-8.95959
ži	-8.96436
▁njegovih	-8.96733
ge	-8.96804
▁c	-8.96805
▁tekme	-8.96995
▁popolnoma	-8.97172
▁zadnjem	-8.97324
▁bolezni	-8.97375
▁zvezi	-8.97417
▁kje	-8.97578
▁veliki	-8.97784
▁umrl	-8.98004
▁ameriški	-8.98007
▁nihče	-8.98058
▁pravijo	-8.98132
▁pač	-8.98266
▁sezoni	-8.98305
▁večkrat	-8.98359
▁nedeljo	-8.98819
▁promet	-8.98887
že	-8.9899
al	-8.99343
▁osem	-8.99415
pri	-8.99553
ča	-8.99563
▁potrebno	-8.99633
▁moramo	-8.99693
▁dejala	-8.998
kom	-9.00164
▁skupina	-9.00498
▁2015	-9.00541
▁najboljši	-9.00741
▁postal	-9.00783
▁zjutraj	-9.00869
njem	-9.00905
▁zvečer	-9.00999
▁številne	-9.01051
▁mesec	-9.0107
▁11	-9.01102
▁radi	-9.01225
▁the	-9.01263
▁podatkov	-9.01281
▁sedem	-9.01443
▁razvoj	-9.01664
▁včasih	-9.01769
▁prihaja	-9.01799
▁2.	-9.01884
▁al	-9.0203
tve	-9.02132
▁predlog	-9.02278
▁6	-9.02316
▁žal	-9.02317
▁ministrstvo	-9.02506
▁otroka	-9.02723
▁nekaterih	-9.02736
▁temveč	-9.02759
▁bolje	-9.02869
▁sredi	-9.02895
▁drugem	-9.03163
▁telo	-9.03171
▁otroci	-9.03513
▁cena	-9.03639
▁katerimi	-9.03701
▁minuti	-9.03711
▁2014	-9.03819
man	-9.03823
▁katerim	-9.03868
▁priložnost	-9.03961
ter	-9.04253
▁ponedeljek	-9.04255
▁cerar	-9.04273
▁sredo	-9.04484
▁javno	-9.0464
▁nazaj	-9.04858
ška	-9.04996
▁trgu	-9.05057
▁lepo	-9.05192
▁sezone	-9.05222
▁glavni	-9.05267
▁100	-9.05307
▁dobila	-9.05398
ar	-9.05478
▁projekt	-9.05558
▁življenju	-9.05559
▁napad	-9.05572
▁župan	-9.05707
▁mariboru	-9.05973
▁40	-9.06181
▁/	-9.06693
▁25	-9.06779
▁agencija	-9.06842
▁banke	-9.06889
▁marca	-9.06927
▁namesto	-9.0693
▁evropski	-9.07326
▁slovensko	-9.0739
▁druga	-9.07395
▁državni	-9.07687
▁naslov	-9.07722
▁spletni	-9.07874
▁videti	-9.07878
nice	-9.07916
▁vodo	-9.08158
▁2016	-9.08211
ško	-9.08389
zi	-9.0843
▁četrtek	-9.08455
nost	-9.08635
su	-9.08669
▁center	-9.0888
▁nadzor	-9.08882
▁podatkih	-9.0934
▁dolarjev	-9.09377
▁17	-9.09813
▁velike	-9.09878
er	-9.1034
▁lige	-9.10478
▁drugače	-9.10534
▁sebi	-9.10639
▁ostaja	-9.1069
▁evropi	-9.10706
▁družba	-9.10817
▁podlagi	-9.11011
▁podobno	-9.1104
▁li	-9.11282
▁co	-9.11336
▁nesreče	-9.11379
▁pomoči	-9.11407
▁cilj	-9.11479
▁slovenskega	-9.11547
▁nekatere	-9.11609
▁rešitev	-9.11708
letna	-9.11715
▁ravni	-9.11909
▁otroke	-9.11948
▁avto	-9.12183
▁kilometrov	-9.12572
▁človek	-9.12684
▁predstavlja	-9.12715
iz	-9.12919
▁njem	-9.12927
▁ženska	-9.12955
▁njegove	-9.13151
▁piše	-9.13155
▁podporo	-9.13157
▁gasilci	-9.13243
▁trener	-9.13528
▁dz	-9.13742
▁rad	-9.13749
▁tv	-9.13768
▁želel	-9.13829
el	-9.13979
▁sistema	-9.14068
cem	-9.14188
▁varnost	-9.14233
▁tiste	-9.14525
▁domov	-9.14539
▁torek	-9.1457
▁jutri	-9.14628
▁policije	-9.14665
▁domači	-9.14666
▁vseeno	-9.14688
▁dober	-9.14875
il	-9.14997
▁posebno	-9.15074
so	-9.15161
▁odločil	-9.15328
ijo	-9.1543
▁njegovi	-9.15491
▁mediji	-9.1558
ha	-9.15689
▁njej	-9.15707
▁igre	-9.1574
▁pomaga	-9.15755
▁zahteva	-9.15895
▁razmere	-9.16079
ški	-9.16147
▁svetovni	-9.1616
▁prvih	-9.16438
▁igra	-9.16567
▁račun	-9.16603
▁njeno	-9.16661
▁javnosti	-9.16736
▁ekipa	-9.16875
▁skupno	-9.16967
▁peter	-9.17007
▁postala	-9.17232
▁državo	-9.17345
▁naši	-9.17418
▁janša	-9.17572
del	-9.17616
▁septembra	-9.17643
▁luka	-9.17653
▁3.	-9.1771
”	-9.17896
lja	-9.17901
▁svetovnega	-9.17994
▁7	-9.18091
▁oddan	-9.18092
▁obstaja	-9.18204
▁new	-9.18282
▁družbi	-9.18445
▁slovenci	-9.18526
«.	-9.18763
▁prihodnje	-9.188
▁rast	-9.18825
▁eni	-9.18829
▁ma	-9.1899
▁naših	-9.19005
▁postopek	-9.19036
▁spremembe	-9.19121
▁n	-9.19374
▁,"	-9.19407
▁nismo	-9.19438
▁enako	-9.19543
▁sporočil	-9.19548
▁skrbi	-9.19573
▁dvema	-9.19613
▁uspešno	-9.1963
▁pomočjo	-9.19829
▁kazen	-9.19831
▁okolje	-9.19856
▁imam	-9.19968
▁sporočila	-9.20121
▁kakšno	-9.20183
▁stanje	-9.20232
▁voznik	-9.20236
▁junija	-9.20257
▁žrtev	-9.20338
▁hrvaški	-9.2034
▁8	-9.20342
▁10.	-9.20421
▁program	-9.20528
▁komisije	-9.20601
▁največji	-9.2074
▁tukaj	-9.20745
▁novem	-9.20756
▁prišli	-9.20792
▁prepričan	-9.20913
▁hiše	-9.20959
▁živo	-9.21087
▁ime	-9.21179
00	-9.21284
mer	-9.21325
▁deluje	-9.21617
▁zveze	-9.21842
▁aktualen	-9.21954
▁decembra	-9.21994
nosti	-9.22019
▁opozoril	-9.22283
▁oseb	-9.2233
▁igral	-9.22356
▁h	-9.22386
▁javnost	-9.22429
▁mladi	-9.22474
▁kakšen	-9.22679
▁oče	-9.22825
▁ha	-9.22855
▁slabo	-9.23014
▁tretji	-9.23062
pe	-9.23076
▁prvega	-9.2309
▁volitvah	-9.23185
▁ugotovili	-9.23421
ost	-9.23476
▁okviru	-9.23834
▁končno	-9.23933
▁sodišču	-9.23949
▁komisija	-9.24189
▁živi	-9.24191
▁4.	-9.24531
▁pove	-9.24534
▁vlogo	-9.24564
▁član	-9.24616
▁njo	-9.24712
▁lažje	-9.24814
▁službe	-9.24877
nico	-9.24926
▁zadnje	-9.2497
▁njihovo	-9.25016
▁aprila	-9.25046
▁njena	-9.25072
letnega	-9.25075
▁sebe	-9.25093
▁di	-9.2524
▁čemer	-9.25339
▁glas	-9.25359
▁film	-9.25431
▁enem	-9.25478
iti	-9.2562
▁videli	-9.25705
tev	-9.25754
▁omogoča	-9.25812
▁poteka	-9.25858
ri	-9.26006
▁opozarja	-9.26067
▁družine	-9.26116
▁smrti	-9.26441
▁oči	-9.26597
▁preden	-9.26631
▁mesecih	-9.26703
▁kazni	-9.26768
▁oktobra	-9.26797
▁pravice	-9.26998
▁sredstev	-9.27058
▁volitve	-9.27077
▁roke	-9.27105
▁točke	-9.27251
▁fotografije	-9.27448
▁požar	-9.27509
▁novice	-9.27531
jeva	-9.27666
▁meje	-9.27767
▁moj	-9.27785
▁januarja	-9.27843
▁2017	-9.27883
ob	-9.28066
▁večji	-9.28067
▁prišla	-9.28164
▁lo	-9.28173
▁energije	-9.28349
▁cene	-9.28448
▁zapisali	-9.2846
▁par	-9.28496
▁telefon	-9.28653
▁20.	-9.28669
▁julija	-9.28726
▁nekdo	-9.28767
▁ceste	-9.29041
▁noč	-9.29124
▁vsega	-9.29155
▁smeri	-9.29239
▁napovedal	-9.29304
▁njegovem	-9.29392
▁igralec	-9.29438
▁5.	-9.29707
▁številni	-9.29798
ša	-9.29974
▁dosegel	-9.3008
▁zaščito	-9.30125
▁znano	-9.30248
▁real	-9.3039
▁zoper	-9.30553
▁mesecev	-9.30564
▁zgodba	-9.3065
▁koper	-9.30872
ali	-9.30921
tvi	-9.31036
▁visoko	-9.31047
▁trije	-9.31136
▁moč	-9.31141
,”	-9.31203
▁novembra	-9.31407
▁ministrstvu	-9.31438
▁boj	-9.31736
▁21	-9.31855
▁migrantov	-9.31885
▁blizu	-9.31946
▁skladu	-9.31964
▁vem	-9.32138
▁devet	-9.32166
▁njihove	-9.3217
▁nesreči	-9.32517
▁ž	-9.32576
▁8.	-9.32673
▁oba	-9.32775
▁živali	-9.32841
ove	-9.32906
krat	-9.32934
ovi	-9.33106
pre	-9.33121
▁hrvaška	-9.33178
▁naš	-9.33182
▁problem	-9.33204
▁9.	-9.33301
▁občini	-9.33333
▁vozilo	-9.33351
▁tak	-9.33502
▁ljubezen	-9.33665
▁ku	-9.33984
▁andrej	-9.34006
▁mislim	-9.34076
▁dejanja	-9.34165
▁večinoma	-9.34292
▁meji	-9.34416
▁15.	-9.34471
▁poročanju	-9.34521
▁celje	-9.34526
▁česar	-9.34565
▁zadeve	-9.34629
▁uporabo	-9.3472
▁podjetij	-9.3474
▁6.	-9.34798
▁sodelovanje	-9.34807
▁dodaja	-9.34812
an	-9.3494
▁ostali	-9.3498
▁janez	-9.35073
▁položaj	-9.35215
▁ekipe	-9.35229
▁odlično	-9.3525
▁raje	-9.35285
▁denimo	-9.35316
▁obdobju	-9.35406
▁krogu	-9.35483
▁vsa	-9.35553
▁malce	-9.35735
▁agencije	-9.35779
▁zapora	-9.35893
▁7.	-9.35982
▁be	-9.36029
▁tiskovna	-9.36273
▁glavo	-9.36449
▁dodatno	-9.36465
▁nakup	-9.36493
▁š	-9.36515
▁državnega	-9.36654
▁12.	-9.36788
▁delež	-9.36825
▁sporočilo	-9.36843
▁beguncev	-9.36857
▁super	-9.36966
▁seboj	-9.37034
▁naša	-9.37058
▁dogaja	-9.37093
▁ministrstva	-9.37196
▁ligi	-9.37234
ši	-9.37237
on	-9.37243
▁pokazala	-9.37282
▁pozneje	-9.37331
▁vrata	-9.37386
▁mož	-9.37462
▁skupini	-9.37495
▁hrano	-9.37536
ck	-9.37645
▁dnevi	-9.37681
▁tistih	-9.37888
▁popoldne	-9.37968
▁evra	-9.38111
▁dobra	-9.38122
▁trenutku	-9.38209
▁evropskih	-9.38279
▁oseba	-9.38358
▁ukc	-9.38396
▁pahor	-9.38502
us	-9.38514
ver	-9.38554
▁zapisal	-9.38555
▁evropska	-9.3861
▁22	-9.38716
▁zlasti	-9.38726
▁centru	-9.38744
▁občina	-9.38756
▁prvakov	-9.38891
▁stopinj	-9.39028
▁vodstvo	-9.39078
▁štirih	-9.39104
▁nujno	-9.39153
▁dom	-9.39165
▁vaše	-9.39172
▁oznake	-9.39259
▁ljubljanski	-9.39331
▁x	-9.39338
▁družino	-9.39428
▁18.	-9.39598
ze	-9.39659
▁vendarle	-9.39871
▁člani	-9.39874
zo	-9.39875
▁občine	-9.39904
ica	-9.40055
▁pravo	-9.40191
ven	-9.40197
ija	-9.40239
▁dvakrat	-9.40253
▁hotel	-9.4027
▁ostal	-9.40438
▁sredstva	-9.40484
ič	-9.40729
▁višje	-9.40794
▁uradno	-9.40814
▁kam	-9.40822
▁všeč	-9.40822
▁preprosto	-9.40886
▁nimajo	-9.40928
▁hrvaško	-9.40956
▁bar	-9.40972
▁zanj	-9.4101
pi	-9.41125
▁njega	-9.41148
▁korak	-9.41148
▁pogodbe	-9.41185
▁februarja	-9.41271
ček	-9.41313
▁ba	-9.41328
▁večje	-9.41344
ice	-9.41381
▁starši	-9.41385
▁nekoč	-9.41556
vr	-9.41559
▁okrog	-9.4158
ovo	-9.41593
gi	-9.41617
▁začetek	-9.41637
▁občutek	-9.41656
▁prostora	-9.41676
▁dogovor	-9.41693
ške	-9.41852
▁dokler	-9.4202
pro	-9.42257
▁kraju	-9.42278
▁centra	-9.42491
▁dejstvo	-9.42556
▁red	-9.42921
gre	-9.42928
▁obeh	-9.43067
▁vpliva	-9.43312
▁odločili	-9.43334
val	-9.43416
▁preteklosti	-9.43462
▁politikis	-9.4347
▁želeli	-9.43681
▁sezono	-9.4372
▁kažejo	-9.43733
▁11.	-9.44021
▁njihov	-9.44203
▁ministra	-9.44249
▁storitev	-9.44349
ste	-9.44381
▁zaposlenih	-9.4455
▁potrebuje	-9.44569
▁tisto	-9.44808
▁različne	-9.44921
▁voda	-9.45038
▁ponoči	-9.45214
fi	-9.45405
▁številnih	-9.45431
▁dobrih	-9.45518
ten	-9.45595
▁lu	-9.45606
▁vrsti	-9.45774
▁vrednost	-9.45804
kar	-9.45884
▁(@	-9.45957
▁potrdil	-9.46107
▁objavil	-9.46235
ite	-9.46278
▁meri	-9.46419
▁prvenstva	-9.46566
▁prvenstvu	-9.46683
▁tekma	-9.4669
▁boljši	-9.46753
▁odločila	-9.46832
▁dobre	-9.46834
▁informacije	-9.46849
▁16.	-9.47078
▁letalo	-9.47078
▁opozarjajo	-9.47261
▁reševanje	-9.4738
▁sp	-9.47388
nici	-9.47501
▁marko	-9.47517
▁razlog	-9.47591
▁državah	-9.47616
▁vprašanja	-9.47638
▁hudo	-9.47684
▁hišo	-9.47718
▁osebe	-9.47752
▁dejansko	-9.47778
▁strokovnjaki	-9.47814
▁imate	-9.47871
▁19.	-9.48057
▁podatke	-9.48057
▁čisto	-9.48118
▁rada	-9.48238
▁prednost	-9.48303
▁200	-9.48341
▁tožilstvo	-9.48352
▁podjetju	-9.48397
▁mir	-9.48411
tra	-9.48417
▁trg	-9.48448
▁13.	-9.48501
▁mest	-9.48554
▁nista	-9.48573
▁obraz	-9.48621
▁bližini	-9.48683
▁pregled	-9.48804
▁namen	-9.48818
▁višini	-9.48902
▁družina	-9.4896
čno	-9.48971
▁sledi	-9.49071
▁60	-9.49104
▁žensk	-9.49174
▁običajno	-9.49269
▁prvak	-9.49275
▁svetovnem	-9.49352
▁imeti	-9.49373
▁ro	-9.49389
▁svojimi	-9.49445
▁najboljše	-9.49457
gu	-9.49553
▁priložnosti	-9.4961
▁san	-9.4963
▁klub	-9.49699
▁poročajo	-9.49699
10	-9.49741
▁republike	-9.49756
▁resnici	-9.499
▁vlado	-9.49944
▁plače	-9.49953
▁hrvaške	-9.49993
▁koli	-9.50014
▁petih	-9.50045
▁moje	-9.50071
▁hrane	-9.50192
▁misli	-9.50362
▁prava	-9.50372
▁ekipo	-9.50416
▁šole	-9.50428
▁kr	-9.50516
▁vrh	-9.50599
▁ministrica	-9.50614
▁stranka	-9.50842
▁znan	-9.50976
▁rs	-9.50998
▁17.	-9.51159
▁redno	-9.51419
▁avtocesti	-9.51428
▁sd	-9.51476
▁avgusta	-9.51498
▁njihovih	-9.51542
▁informacij	-9.51566
am	-9.51601
▁edini	-9.51747
▁končal	-9.51767
▁daleč	-9.518
▁pravzaprav	-9.5191
rja	-9.52066
sto	-9.52167
▁zanima	-9.5224
den	-9.52319
▁obisk	-9.52345
▁facebook	-9.52402
▁moči	-9.52426
▁op	-9.52429
▁stvar	-9.52551
▁drugimi	-9.52625
▁pop	-9.52637
▁pričakuje	-9.52757
▁vrednosti	-9.52883
▁moja	-9.52916
▁direktorja	-9.52934
▁predstavniki	-9.53122
▁strah	-9.53334
▁fi	-9.5335
▁posledice	-9.53353
▁rezultat	-9.53381
▁jan	-9.53394
▁kraj	-9.53428
▁naslednji	-9.5346
▁nlb	-9.53517
▁zase	-9.53643
▁ponuja	-9.53663
▁vrhu	-9.53725
▁njihovi	-9.53747
▁zgodi	-9.53806
ico	-9.53861
▁vso	-9.54001
▁javnega	-9.54043
▁delovanje	-9.5411
▁ar	-9.54171
▁njene	-9.54191
▁pogled	-9.54248
▁tik	-9.54325
ža	-9.5437
▁14.	-9.54525
▁hrvaškem	-9.54792
čka	-9.54888
▁hiši	-9.55012
▁mnogi	-9.55029
ek	-9.55092
▁počasi	-9.5517
▁mo	-9.55196
▁2013	-9.55204
▁predstavnik	-9.55229
▁val	-9.55233
▁milijarde	-9.55264
hi	-9.55277
▁temperature	-9.55288
▁srečo	-9.55333
▁is	-9.55347
▁2018	-9.55417
▁mama	-9.55575
▁večino	-9.55583
▁letala	-9.55623
nov	-9.55628
▁vrste	-9.55725
▁današnji	-9.55885
▁želimo	-9.55911
▁sprva	-9.55956
!.	-9.5604
▁območje	-9.56238
▁prejel	-9.56382
▁kakšne	-9.56386
▁vodil	-9.56391
▁evropskega	-9.56436
ati	-9.56467
▁aktivnosti	-9.56527
▁kakšna	-9.56607
▁ana	-9.56609
▁vaš	-9.56624
letnik	-9.5663
is	-9.56632
▁vir	-9.56638
▁prinaša	-9.56703
▁poslanci	-9.56705
▁ponudba	-9.56872
▁dejavnosti	-9.57076
▁zmage	-9.57184
▁ostala	-9.57297
▁nesreča	-9.57316
▁pričakujejo	-9.57403
▁noči	-9.57491
▁evropsko	-9.57496
▁dneva	-9.57673
at	-9.57692
▁mali	-9.57704
▁obe	-9.57763
▁krog	-9.57912
▁pravic	-9.57938
▁f	-9.57988
▁las	-9.58192
▁smrt	-9.58345
▁j	-9.58366
▁gol	-9.58421
▁napada	-9.58688
osti	-9.58707
ije	-9.58797
▁fotografijo	-9.58873
▁23	-9.58971
▁prodaja	-9.59202
▁javni	-9.59204
▁post	-9.59311
▁kluba	-9.59389
▁priznal	-9.59589
▁nazadnje	-9.596
▁naredil	-9.59649
▁ho	-9.59965
jše	-9.59994
▁dogodek	-9.60011
▁odgovor	-9.60034
▁zdravniki	-9.60048
▁šport	-9.60077
▁prihodnosti	-9.60089
▁začne	-9.60189
ru	-9.60286
▁nemški	-9.60316
▁medijev	-9.60358
▁njihova	-9.6038
men	-9.60442
▁javnih	-9.60519
▁prejšnji	-9.60583
▁r	-9.60644
▁nagrado	-9.60649
▁izgubil	-9.60686
▁dogajanje	-9.60709
▁storitve	-9.60761
▁zmaga	-9.60787
ing	-9.61024
▁britanski	-9.61033
▁vpliv	-9.61064
▁boljše	-9.61074
▁prodajo	-9.61095
▁21.	-9.61101
šek	-9.61142
ss	-9.6116
red	-9.61161
▁primerjavi	-9.61211
it	-9.61271
▁top	-9.613
ber	-9.6131
«,	-9.61419
▁vrsto	-9.61419
▁njegovega	-9.61427
▁drug	-9.61483
▁trdi	-9.61511
▁nastop	-9.6158
▁pojasnila	-9.61582
▁organizacije	-9.61587
5,	-9.61614
▁milijard	-9.61623
▁najbolje	-9.61709
▁navedbah	-9.61912
▁posledica	-9.61916
▁bistveno	-9.6198
▁podatki	-9.62044
▁projekta	-9.62129
▁miro	-9.62411
▁igralka	-9.62463
▁dejanje	-9.62702
▁ljubezni	-9.62727
▁sme	-9.628
jih	-9.62817
▁morejo	-9.62828
per	-9.62889
▁napadu	-9.62918
▁pesmi	-9.62954
nika	-9.6297
▁postopku	-9.63075
▁urah	-9.6312
▁besede	-9.63218
▁varnosti	-9.63291
▁policistov	-9.63299
▁festival	-9.63332
▁obenem	-9.6334
▁uprava	-9.63391
▁želim	-9.63425
▁uspeh	-9.63557
▁l	-9.63761
▁vidi	-9.63809
▁dodala	-9.63836
or	-9.63901
▁odgovornost	-9.63911
▁narediti	-9.6394
▁9	-9.6394
▁volitev	-9.63953
▁odnos	-9.63965
▁odločitve	-9.64005
▁zadnja	-9.64017
▁tomaž	-9.64118
▁osvojil	-9.64187
▁policijske	-9.64219
▁naredili	-9.64223
▁telesa	-9.64335
▁vladi	-9.64401
▁sin	-9.64424
▁pripravili	-9.64483
▁pripravljeni	-9.64484
▁glasov	-9.64595
▁njenih	-9.64851
▁seji	-9.65037
▁veseli	-9.65118
▁želela	-9.65199
▁nobenega	-9.65325
▁prijatelji	-9.6542
▁bolezen	-9.65421
tri	-9.65471
▁družbo	-9.65855
▁vsekakor	-9.65926
▁poudarja	-9.65974
▁nadaljuje	-9.66071
▁pevka	-9.66138
▁vožnjo	-9.66185
▁svetovno	-9.66217
▁ene	-9.66218
▁sodelovanju	-9.66222
lec	-9.66439
",	-9.66508
▁konferenci	-9.66534
▁obdobje	-9.66675
▁njeni	-9.6672
▁roko	-9.66833
▁pomemben	-9.66837
▁#	-9.66849
▁stoletja	-9.66892
▁zgodovini	-9.66965
▁prihodnost	-9.67002
jši	-9.67008
▁začelo	-9.67285
▁ivan	-9.67332
▁izredno	-9.67333
▁domu	-9.67352
▁obveznosti	-9.67356
30	-9.67494
▁takšno	-9.67534
▁veter	-9.67653
▁pesem	-9.67681
var	-9.67702
dr	-9.6776
▁poškodbe	-9.67908
▁bank	-9.67933
▁vrnil	-9.68029
▁najboljših	-9.6803
čna	-9.68134
▁lastnik	-9.68203
čni	-9.68278
▁celzija	-9.68352
▁ru	-9.68397
▁prejeli	-9.68669
▁takšne	-9.68709
▁tekmah	-9.68738
▁0	-9.68753
▁smc	-9.68771
▁ekipi	-9.68775
bra	-9.68843
▁avtomobil	-9.68861
iji	-9.68938
▁polno	-9.69097
▁pojasnili	-9.69124
▁mladih	-9.69136
ch	-9.69191
ng	-9.69381
▁umrla	-9.69434
▁zares	-9.69616
▁prvaka	-9.69639
▁osebno	-9.69873
▁tujini	-9.69918
▁nemčiji	-9.69949
▁raka	-9.69995
stva	-9.70046
▁opravili	-9.70125
▁zunaj	-9.70213
▁politika	-9.70225
▁ruski	-9.70308
▁pozna	-9.70408
▁david	-9.70417
▁martin	-9.70492
▁letošnji	-9.70535
▁tretje	-9.70612
▁potrdili	-9.70806
▁2012	-9.70843
der	-9.70856
▁he	-9.7087
▁per	-9.70954
nski	-9.71003
▁zame	-9.71015
res	-9.71109
▁ogromno	-9.71183
▁razpis	-9.71333
▁pi	-9.7135
▁komaj	-9.71354
▁postane	-9.71371
▁prodaje	-9.71613
▁resnično	-9.7167
▁dobri	-9.71682
▁alkohola	-9.71803
▁osebni	-9.71827
▁uporablja	-9.71842
▁vrača	-9.71868
▁območja	-9.71973
▁človeka	-9.71978
▁banka	-9.72
son	-9.72173
▁pokazal	-9.72199
▁kratkim	-9.72249
▁mnenje	-9.7247
mar	-9.72489
letno	-9.72592
prav	-9.72641
▁politike	-9.72665
▁objavila	-9.72703
▁resno	-9.72712
▁ustrezno	-9.72761
▁srce	-9.72782
▁spletu	-9.72797
▁začetka	-9.72817
6,	-9.72852
▁bu	-9.72899
ker	-9.73084
▁ka	-9.73097
▁pozval	-9.731
▁evrope	-9.73166
▁35	-9.73259
▁rekel	-9.73394
▁dosegli	-9.73506
▁google	-9.7362
▁rešitve	-9.73726
▁bolnišnici	-9.73777
▁kilogramov	-9.73802
▁ljudem	-9.73822
▁robert	-9.73896
▁padel	-9.73995
▁predstavil	-9.74006
▁partner	-9.74054
▁pokala	-9.74067
▁prenos	-9.74076
▁prevzel	-9.74111
▁vojne	-9.74154
▁isti	-9.74217
▁du	-9.74324
▁miru	-9.74422
▁ljubljane	-9.74436
▁družini	-9.7447
▁zanimivo	-9.745
▁kos	-9.74514
▁go	-9.74524
▁premalo	-9.74548
▁prevc	-9.74563
▁filma	-9.74579
▁videl	-9.74663
▁skupnosti	-9.74669
▁enostavno	-9.74671
nikov	-9.74708
▁celoti	-9.74795
▁pomembna	-9.74803
▁zgodbo	-9.74832
▁70	-9.74842
▁navaja	-9.7495
▁avtomobila	-9.74991
▁položaja	-9.74997
▁podpira	-9.74997
▁dolga	-9.75091
▁tina	-9.75109
▁milan	-9.75155
▁rekord	-9.75207
▁80	-9.75306
20	-9.75474
▁ceno	-9.75502
▁rusija	-9.75502
du	-9.75515
▁umrlo	-9.75594
▁nekdanjega	-9.75595
▁dal	-9.75687
▁prometa	-9.75774
▁programa	-9.75782
▁obliki	-9.75844
▁slovenskem	-9.75917
▁erjavec	-9.75941
▁mejo	-9.75953
▁službo	-9.76061
▁vreme	-9.76094
▁skupino	-9.76099
▁dlje	-9.76123
et	-9.7625
▁br	-9.76355
ić	-9.76411
▁igro	-9.76435
▁zgodila	-9.76443
▁strank	-9.76554
▁praktično	-9.76558
▁drži	-9.76628
▁velikih	-9.7668
▁zveza	-9.76701
▁hi	-9.76769
▁proces	-9.76778
▁francoski	-9.76782
▁sprejeli	-9.76783
niki	-9.7682
▁vemo	-9.7686
▁razlogov	-9.76935
▁morate	-9.76978
▁arhiv	-9.77031
▁uporabniki	-9.77069
▁zdravljenje	-9.77098
▁znotraj	-9.77133
▁dostop	-9.77182
čen	-9.77212
▁kandidat	-9.77242
▁dogodka	-9.77359
▁takšnih	-9.77506
▁izbira	-9.77577
▁ri	-9.77593
▁izkušnje	-9.77601
▁olimpija	-9.77621
▁moškega	-9.77651
▁roman	-9.77668
▁kolikor	-9.77691
rt	-9.77691
▁pogodbo	-9.77695
▁odbora	-9.77721
▁cestah	-9.77741
▁stari	-9.7779
▁km	-9.77798
▁zgodbe	-9.77831
▁sprejel	-9.77834
▁500	-9.77844
▁morju	-9.77847
▁preiskavo	-9.77848
▁ceni	-9.77872
▁ci	-9.7789
▁domače	-9.77891
▁šoli	-9.77917
čič	-9.77931
▁članov	-9.78029
▁središču	-9.78062
▁igor	-9.78093
▁priča	-9.7814
▁seznam	-9.78204
▁energijo	-9.78222
▁prvenstvo	-9.78336
▁naslednjih	-9.78411
▁afp	-9.78416
▁ulici	-9.78559
čki	-9.78572
▁pe	-9.7859
▁zagotavlja	-9.78599
▁predvidoma	-9.78701
▁vrst	-9.78753
▁el	-9.78753
▁plača	-9.7878
▁največje	-9.78829
▁stara	-9.78896
▁pravico	-9.78916
anje	-9.78951
skim	-9.79041
▁sprememb	-9.79044
▁mimo	-9.79052
▁potrebujejo	-9.79071
▁izpostavil	-9.79091
▁primerih	-9.79209
▁bolnišnico	-9.79219
▁sporazum	-9.79315
nka	-9.79401
▁delavcev	-9.79444
_	-9.79565
pol	-9.7977
▁nedavno	-9.79825
▁nikakor	-9.79826
▁menda	-9.79837
▁zunanji	-9.79841
▁zapor	-9.79851
▁bla	-9.79912
▁izgubila	-9.79931
–	-9.80005
▁reuters	-9.80016
▁išče	-9.80062
▁politiko	-9.80109
▁vsaka	-9.80203
▁tr	-9.80237
▁razkril	-9.80238
os	-9.8029
▁w	-9.80297
▁naprave	-9.80384
▁politiki	-9.80407
▁edina	-9.80421
▁tedaj	-9.80423
▁večjih	-9.80578
▁prepričani	-9.80657
▁26	-9.80662
▁predlaga	-9.80665
nj	-9.80761
lin	-9.80822
▁vasi	-9.80947
▁ocenil	-9.80988
▁letom	-9.81159
▁300	-9.81183
ster	-9.81534
nji	-9.81662
▁storil	-9.81691
▁odziv	-9.81762
▁končala	-9.81837
▁novim	-9.81861
▁največja	-9.8187
ina	-9.81903
▁star	-9.81918
▁finance	-9.81922
bil	-9.81955
▁dobi	-9.81983
▁delovanja	-9.8199
▁ostalo	-9.82038
▁22.	-9.82363
▁borut	-9.8237
▁nje	-9.82371
es	-9.82394
▁delovnih	-9.82442
▁posnetek	-9.82512
▁potrdila	-9.82525
▁kadar	-9.8253
▁zaščite	-9.82631
▁minutah	-9.82643
čne	-9.82679
slo	-9.82753
▁časom	-9.82772
▁izdelkov	-9.82787
▁raziskave	-9.82792
ici	-9.8285
▁povedali	-9.82859
▁prednosti	-9.82866
▁odkrili	-9.82934
▁zadel	-9.83022
▁lasti	-9.83071
▁fotografija	-9.83074
▁ukrepe	-9.83155
▁krize	-9.83272
▁ce	-9.83298
▁pripravlja	-9.83338
tov	-9.83351
ili	-9.83364
▁meseca	-9.83382
▁matej	-9.83436
ic	-9.8344
▁vsebuje	-9.83444
▁27	-9.83596
pu	-9.83606
nic	-9.83636
sen	-9.83641
▁vrat	-9.83864
▁mati	-9.83876
▁finalu	-9.84003
▁šel	-9.84031
▁preiskave	-9.84045
▁prihajajo	-9.84052
4,	-9.84062
▁telesu	-9.84064
▁mandat	-9.84142
▁neposredno	-9.84165
▁manjši	-9.8418
eva	-9.84371
ovih	-9.84404
▁apple	-9.8443
▁trenutna	-9.84534
pla	-9.84561
čke	-9.84637
▁delajo	-9.84881
▁smer	-9.84886
ila	-9.84895
▁28	-9.84906
▁izziv	-9.84936
▁želja	-9.85133
▁parlament	-9.85176
▁politično	-9.85223
▁sklep	-9.85407
▁upam	-9.85423
▁poglejte	-9.85489
▁šla	-9.85527
▁zvezdnik	-9.85577
▁znani	-9.85586
▁trenutek	-9.85602
▁story	-9.85623
▁varno	-9.85633
7,	-9.8567
▁spomin	-9.85684
▁dvo	-9.85699
▁poraz	-9.85706
stvo	-9.85743
▁2011	-9.85771
▁tja	-9.85845
▁delavci	-9.85858
▁prometne	-9.85863
▁vojske	-9.85866
gor	-9.85867
▁šolo	-9.85971
▁prihodnjih	-9.86
▁mestih	-9.86061
▁poškodoval	-9.86079
▁pripravljen	-9.86087
▁meja	-9.86127
▁spominja	-9.86299
▁božič	-9.86307
▁matjaž	-9.86389
nemu	-9.86395
▁najboljša	-9.86455
▁vsemi	-9.86477
▁rdeči	-9.86547
▁mlade	-9.86685
▁koncert	-9.86711
▁android	-9.86727
▁namerava	-9.86754
dra	-9.8679
▁vedel	-9.86933
▁90	-9.86943
▁mogel	-9.86974
▁načrt	-9.87013
▁znana	-9.87013
▁car	-9.87059
▁bojan	-9.87228
▁postavil	-9.87298
▁dosegla	-9.87355
▁poslal	-9.87368
▁rezultati	-9.87419
▁prevoz	-9.87426
▁moremo	-9.87521
fa	-9.87522
stan	-9.87585
▁sodnik	-9.87644
▁fa	-9.87723
▁nepremičnin	-9.87803
▁kakor	-9.87851
▁vožnje	-9.87945
./	-9.87961
▁45	-9.87983
▁škode	-9.88025
▁mal	-9.88039
▁ca	-9.88094
▁tednu	-9.88142
▁zdravil	-9.88195
▁igralci	-9.88245
▁dne	-9.88265
▁številko	-9.88319
▁ukrepov	-9.8833
0€	-9.88388
▁stres	-9.88407
▁finančni	-9.88414
▁by	-9.88419
▁uporabnikov	-9.88701
▁iščejo	-9.88767
▁preverite	-9.88801
▁ameriške	-9.8883
▁man	-9.88856
▁vstop	-9.88967
▁največjih	-9.89009
▁nemška	-9.89015
▁kriminalisti	-9.89032
▁zmagi	-9.89032
▁alenka	-9.89069
▁kranj	-9.89302
▁samsung	-9.89311
ly	-9.89375
▁večjo	-9.89386
▁odpeljali	-9.89456
▁ogled	-9.89517
▁strel	-9.89526
▁ukvarja	-9.89545
▁socialno	-9.89579
▁donald	-9.89597
▁selektor	-9.89688
▁stroškov	-9.89777
▁model	-9.89804
▁gospodarstvo	-9.89835
▁desus	-9.89892
▁ponekod	-9.89912
ks	-9.89995
▁čakajo	-9.89999
rjev	-9.90117
▁tra	-9.90152
▁pr	-9.90166
▁moških	-9.90241
nce	-9.90262
▁milijon	-9.90317
▁poročilo	-9.90337
▁vzrok	-9.9034
▁društva	-9.90434
nci	-9.9045
▁dopust	-9.90457
▁skriva	-9.90512
▁zaposleni	-9.90537
▁otrokom	-9.90646
▁našo	-9.90695
▁uporabljajo	-9.90709
▁notranje	-9.90716
▁osebo	-9.90752
▁vedo	-9.90763
ren	-9.90906
▁pojasnjuje	-9.90912
▁vsakem	-9.91005
▁ničesar	-9.9102
▁pogovor	-9.9103
▁povzroča	-9.91058
▁pametni	-9.91069
▁opreme	-9.91095
▁vikend	-9.91124
▁tremi	-9.91197
▁športni	-9.91291
▁slabe	-9.91374
▁ljudmi	-9.91386
▁sprejela	-9.9141
▁pomagali	-9.91467
▁dejanj	-9.91479
ran	-9.91523
▁izgubili	-9.91557
▁lov	-9.91607
▁los	-9.91671
▁staršev	-9.91737
▁pravilno	-9.91745
▁azil	-9.91746
▁zadeva	-9.91784
▁poročila	-9.91794
▁zapisala	-9.91813
▁32	-9.91898
▁večja	-9.9192
▁blaž	-9.91944
▁poslancev	-9.91957
▁našega	-9.91971
▁spremlja	-9.91971
▁želite	-9.91977
▁23.	-9.91979
▁glasbe	-9.92022
▁ši	-9.92107
▁pokal	-9.9211
▁zavoda	-9.92135
▁vesel	-9.92144
jša	-9.92196
▁pes	-9.92257
▁gori	-9.92286
▁šestih	-9.92317
▁petra	-9.9242
▁maribora	-9.92475
▁delati	-9.92488
▁mobilni	-9.92493
▁odbor	-9.92596
▁rasti	-9.92684
▁reprezentance	-9.9272
ču	-9.92744
▁ostale	-9.92803
▁cesta	-9.92863
▁uporabe	-9.92894
▁delom	-9.92951
▁potrebe	-9.92968
▁vlogi	-9.93014
▁policiji	-9.93057
ho	-9.93058
▁ostane	-9.93083
▁karieri	-9.9315
▁padla	-9.93186
▁tveganje	-9.93193
▁franciji	-9.9327
▁miha	-9.93315
▁nsi	-9.93492
▁kožo	-9.93503
▁postaja	-9.9354
▁voznika	-9.93554
▁pen	-9.93664
▁podrobnosti	-9.93711
▁avtor	-9.93711
▁oddaji	-9.93731
▁gu	-9.93835
▁področja	-9.93843
▁politične	-9.93902
▁možno	-9.93911
▁besed	-9.93914
▁čimer	-9.93934
▁obsojen	-9.94018
▁ver	-9.9407
▁parizu	-9.94083
▁of	-9.94115
▁motor	-9.94121
▁sina	-9.94147
▁poleti	-9.94175
▁kon	-9.94227
▁svetovne	-9.9423
▁črno	-9.94232
▁opremo	-9.94237
▁njenega	-9.9424
▁stanju	-9.94244
▁nasveti	-9.94261
ira	-9.94326
▁gotovo	-9.94332
▁žrtve	-9.94338
▁barve	-9.94387
▁državne	-9.94512
▁dejan	-9.94575
▁finale	-9.94614
▁krvi	-9.94702
vec	-9.9471
zna	-9.94716
▁vroče	-9.94718
▁šef	-9.9474
▁janković	-9.94761
▁beli	-9.94773
▁zmagal	-9.94786
▁žensko	-9.9479
▁kakovost	-9.94806
▁2008	-9.94828
▁vrt	-9.94933
▁pomagajo	-9.94953
▁obeta	-9.9503
▁dodatnih	-9.95043
▁putin	-9.95096
▁desetih	-9.95148
▁postopka	-9.95168
▁katera	-9.95191
▁takšna	-9.95212
▁najvišje	-9.95232
▁boris	-9.95273
▁najverjetneje	-9.95339
▁ustavno	-9.95413
▁2010	-9.95565
▁oceni	-9.95691
▁ona	-9.95695
▁pra	-9.95738
▁celotno	-9.95835
ton	-9.95852
▁tednih	-9.95862
▁mogli	-9.9596
▁rezultate	-9.95972
▁skupni	-9.95983
▁plač	-9.96022
▁zna	-9.96025
▁30.	-9.96062
▁vedeli	-9.96083
▁bruslju	-9.96094
▁četrti	-9.96151
▁predstavili	-9.96291
▁ke	-9.96487
▁gra	-9.96596
les	-9.96784
▁najbrž	-9.96819
▁slovencev	-9.96826
▁zadevi	-9.96882
▁2009	-9.96898
▁izid	-9.97002
▁navijači	-9.97007
▁jure	-9.97009
ner	-9.97109
▁prostoru	-9.97126
nes	-9.97152
nsko	-9.97189
▁zdrav	-9.97244
▁kajti	-9.97252
▁ukrepi	-9.97262
▁aktivni	-9.97269
▁madrid	-9.97282
▁skrb	-9.97347
▁jeseni	-9.97356
ry	-9.97495
▁reševalci	-9.97499
▁škodo	-9.97511
▁dekle	-9.97522
▁razen	-9.97573
▁pomagal	-9.97589
▁poskus	-9.97704
rne	-9.97723
▁državno	-9.97769
▁sneg	-9.97786
bu	-9.9785
▁nagrade	-9.97895
▁pozornost	-9.97897
▁zaveda	-9.98015
▁srca	-9.98102
▁stroške	-9.98148
lom	-9.98157
▁list	-9.98171
▁nadaljevanju	-9.98184
▁rusiji	-9.9821
nt	-9.98239
▁evropskem	-9.98261
▁narobe	-9.98273
▁napovedi	-9.98284
tno	-9.98296
▁prihodnji	-9.983
▁serije	-9.98322
▁nadaljeval	-9.98328
▁deli	-9.98337
▁ra	-9.98576
▁nobene	-9.98648
up	-9.98819
▁sekretar	-9.98829
▁skupin	-9.98848
▁številka	-9.98858
▁škoda	-9.98862
nca	-9.98866
▁unije	-9.98889
▁noge	-9.98944
▁pozornosti	-9.99023
emu	-9.99037
▁bih	-9.99042
▁hiša	-9.99102
▁ameriškega	-9.99138
'.	-9.99147
▁ameriška	-9.99153
▁mnogo	-9.99205
▁zdravo	-9.99237
▁polni	-9.99261
▁italiji	-9.99265
▁ponudbo	-9.99335
▁letoma	-9.99335
kih	-9.99346
▁avstriji	-9.99352
▁recept	-9.99413
▁cvet	-9.99418
▁aleš	-9.99439
▁poslanec	-9.99477
▁tek	-9.99506
▁hitrost	-9.99509
▁postavili	-9.99551
▁dolg	-9.99563
tek	-9.99582
▁stoji	-9.99681
▁napoved	-9.99697
▁mednarodno	-9.99726
▁mariborski	-9.99731
▁takšen	-9.99768
▁cen	-9.99777
▁kraja	-9.99786
jet	-9.99853
▁seks	-9.99857
▁boštjan	-9.99949
▁potekala	-9.9995
▁opravil	-9.99951
▁ameriških	-10.0001
▁poročali	-10.0001
▁visoke	-10.0003
▁predvideva	-10.0013
▁žena	-10.0024
▁znaša	-10.0029
▁univerze	-10.003
▁črni	-10.0031
▁sodelovanja	-10.0037
▁jože	-10.0045
▁sile	-10.0048
▁igri	-10.0055
▁odvisno	-10.0057
▁kup	-10.0059
▁menijo	-10.006
▁stare	-10.0065
▁nesreč	-10.007
▁gor	-10.0074
▁italijanski	-10.0075
▁napake	-10.0083
čeva	-10.0085
▁našel	-10.0088
▁zadovoljni	-10.0091
▁sklad	-10.0099
▁centimetrov	-10.0103
▁odgovoril	-10.0105
▁zapored	-10.0106
▁boju	-10.011
▁kamor	-10.0113
▁nastopa	-10.0115
▁južni	-10.0118
▁goran	-10.0126
▁mednarodni	-10.0127
▁vojska	-10.0137
▁vlak	-10.0141
▁anže	-10.0142
▁upravi	-10.0146
raz	-10.0147
▁preživel	-10.0148
▁novica	-10.0149
▁župana	-10.0151
▁informacijah	-10.0151
▁niste	-10.0152
▁podal	-10.0155
▁+	-10.0157
ujejo	-10.0161
▁primorskem	-10.0163
▁naprav	-10.0165
▁skrivnost	-10.0168
▁razkrila	-10.0169
▁zdravnik	-10.0177
▁sprejeti	-10.0178
▁znamke	-10.0184
boj	-10.0187
▁nor	-10.0194
rji	-10.0203
▁posledično	-10.0207
▁zagotovil	-10.0207
▁2000	-10.0209
▁pomagati	-10.0211
▁začasno	-10.0211
▁njenem	-10.0218
▁vsebine	-10.0219
▁upa	-10.0219
tna	-10.0229
ala	-10.0231
▁slika	-10.0232
▁jima	-10.0238
▁slo	-10.0239
▁str	-10.0246
▁os	-10.0251
▁češ	-10.0254
▁snega	-10.0256
11	-10.0257
▁predsednica	-10.0266
▁tekem	-10.0266
▁sabo	-10.0268
▁delnic	-10.0269
kle	-10.0269
▁zoran	-10.0271
▁londonu	-10.0274
▁prometni	-10.0274
čan	-10.0274
▁rokah	-10.0278
▁novinarski	-10.0278
tr	-10.029
▁šova	-10.0291
▁25.	-10.0295
▁ge	-10.0295
▁časnik	-10.0298
▁družbenih	-10.0301
▁finančno	-10.0301
▁zanjo	-10.0301
▁koristi	-10.0307
▁vedeti	-10.0309
▁prejela	-10.0314
tar	-10.0315
▁štirje	-10.032
nom	-10.0322
▁mag	-10.0324
▁delno	-10.033
ovanje	-10.0331
vanje	-10.0334
▁natančno	-10.0338
▁dodatne	-10.0347
▁igralca	-10.0348
ns	-10.0349
▁svoja	-10.0357
▁prebivalcev	-10.0366
net	-10.0367
▁it	-10.0369
▁referendum	-10.0374
▁cesto	-10.0381
▁opozorila	-10.0381
▁vsej	-10.0385
▁starosti	-10.0387
▁števila	-10.0387
▁izrazil	-10.0387
▁stranki	-10.0392
▁tujih	-10.0393
▁zadovoljen	-10.0395
▁temelji	-10.0399
nil	-10.0399
▁nogometaši	-10.0399
▁facebooku	-10.04
▁primerov	-10.0407
▁neki	-10.0412
▁marjan	-10.0413
▁letošnjega	-10.0413
▁nevarnosti	-10.0413
▁poskrbel	-10.0415
▁parlamentu	-10.0415
▁vzhodu	-10.0417
50	-10.0422
▁knjige	-10.0423
▁normalno	-10.0424
▁uporabi	-10.0428
▁gregor	-10.0429
han	-10.0433
▁evropo	-10.0442
tni	-10.0451
▁policijo	-10.0451
▁zmagovalec	-10.0452
ovega	-10.0463
▁srečanje	-10.0469
▁kri	-10.0481
▁francoska	-10.0484
▁žogo	-10.0486
▁parlamenta	-10.0488
▁zlato	-10.049
▁zapeljal	-10.0495
ine	-10.0496
▁ben	-10.0515
▁zahteval	-10.0515
▁javnem	-10.0516
▁zaenkrat	-10.0524
▁razmer	-10.053
pred	-10.053
▁brat	-10.0543
▁delal	-10.055
▁glasbo	-10.0551
lj	-10.0554
▁29	-10.0555
▁uspel	-10.0557
▁veste	-10.0558
▁dnevu	-10.0567
▁minuli	-10.0573
išče	-10.0575
ita	-10.0576
▁zdravstveni	-10.0578
uje	-10.0595
▁nogometni	-10.0596
▁obravnava	-10.0597
▁imena	-10.0597
q	-10.0597
▁mene	-10.0597
vod	-10.0599
▁spletnih	-10.0599
fe	-10.0604
▁podpore	-10.0611
▁občasno	-10.0612
kr	-10.0614
2015	-10.0617
▁naslednje	-10.0617
▁trčil	-10.0618
▁policijski	-10.0636
▁bratušek	-10.0637
▁pravila	-10.0637
▁vaša	-10.0645
▁preberite	-10.0648
▁zavod	-10.0648
▁višji	-10.065
▁gorica	-10.0659
▁an	-10.0665
▁dodali	-10.0671
▁nekdanje	-10.0677
har	-10.0678
▁manjka	-10.0688
▁franc	-10.0691
▁raven	-10.0694
▁luči	-10.0695
▁oddaje	-10.0696
▁prebivalci	-10.0697
▁grozi	-10.0698
▁kandidatov	-10.0701
▁potekal	-10.0704
▁poškodovan	-10.071
▁letošnje	-10.072
▁opazili	-10.0724
▁najti	-10.0726
▁dvoboj	-10.0726
ovanja	-10.073
kal	-10.0732
▁pričakovati	-10.0732
▁moram	-10.0733
▁prehod	-10.0736
▁omrežjih	-10.0751
▁150	-10.0753
▁izjavi	-10.0758
▁or	-10.076
▁določene	-10.0768
▁nu	-10.0768
▁pogovoru	-10.0778
▁položaju	-10.0784
▁odvetnik	-10.0788
▁ptuj	-10.0789
▁windows	-10.0789
▁odstopil	-10.0793
▁trga	-10.0794
▁nevarnost	-10.0801
▁nesrečo	-10.0802
▁napoveduje	-10.0804
▁časov	-10.0808
▁naredila	-10.0813
▁zaprta	-10.0818
▁marquez	-10.0825
▁up	-10.0833
▁ugotavlja	-10.0833
▁inter	-10.0833
▁partnerja	-10.0834
▁policist	-10.0839
▁generalni	-10.0841
▁stanovanje	-10.0843
▁znanje	-10.0845
▁okolju	-10.0852
▁delovno	-10.0864
▁pic	-10.0866
▁zgodil	-10.0869
▁zob	-10.0871
▁zakonu	-10.0871
tre	-10.0872
▁sekund	-10.0875
▁dvorani	-10.0878
▁finala	-10.0883
▁drugič	-10.0884
▁finančne	-10.0889
▁redu	-10.0889
▁bele	-10.0894
▁gospodarske	-10.0897
lov	-10.0898
▁močan	-10.0899
▁slabih	-10.0899
▁poudarila	-10.0902
lje	-10.0907
▁twitterju	-10.0908
▁odstop	-10.0912
▁našem	-10.0916
▁33	-10.0918
▁preiskava	-10.0919
▁park	-10.0919
▁ber	-10.0931
▁traja	-10.094
ovati	-10.094
▁zahtevajo	-10.0941
▁hu	-10.0943
▁avtomobilov	-10.0951
▁stanovanja	-10.0951
▁posel	-10.0954
▁manjše	-10.0958
ed	-10.0965
▁polovici	-10.0966
▁hitrosti	-10.0968
▁glavna	-10.097
pot	-10.0971
▁hude	-10.098
ley	-10.0982
▁tleh	-10.0983
▁nasilja	-10.0994
▁&	-10.0996
▁mednarodne	-10.1006
nk	-10.1007
▁dopoldne	-10.1007
▁ukrajini	-10.1008
▁zdravstveno	-10.1017
▁prostorih	-10.1019
▁imata	-10.1021
▁politični	-10.1022
ović	-10.1027
▁igralcev	-10.103
▁dogodkov	-10.103
▁hiš	-10.1045
▁obravnavali	-10.1049
▁proračun	-10.105
zu	-10.1062
▁pogoje	-10.1064
▁nosi	-10.1067
▁pritisk	-10.1067
▁imenu	-10.1069
▁dobrega	-10.1071
▁nekdanja	-10.1074
▁tuje	-10.1079
▁naloga	-10.1081
▁dogodku	-10.1083
▁velikega	-10.1083
▁vmes	-10.1095
▁robu	-10.1103
▁vključno	-10.1104
▁primerno	-10.1104
▁vojni	-10.1111
▁javne	-10.1113
▁mnenja	-10.1117
▁postavlja	-10.1119
▁poziva	-10.1121
▁njihovem	-10.1128
tro	-10.1129
▁boš	-10.1129
▁ps	-10.1131
▁zbor	-10.1133
▁prepoved	-10.1141
▁poseben	-10.1148
▁naslova	-10.115
▁gosti	-10.1153
▁pozitivno	-10.1153
▁siriji	-10.1154
▁domačih	-10.1155
▁osebnih	-10.1159
▁seriji	-10.116
▁york	-10.116
▁večini	-10.1163
▁banki	-10.1165
▁peti	-10.1168
▁filmu	-10.1171
▁povezavi	-10.1175
▁dnevno	-10.1176
▁našla	-10.1184
▁prometu	-10.1186
▁nadzora	-10.1188
▁posledic	-10.1194
čo	-10.1194
▁zdravstvene	-10.1195
▁pripravljena	-10.12
▁tistim	-10.1211
▁predlagal	-10.1217
▁dogovora	-10.1217
▁odkar	-10.1221
▁zdravila	-10.1221
▁točno	-10.1227
▁kate	-10.1231
▁lastniki	-10.1233
▁videz	-10.1234
len	-10.1235
▁spomnil	-10.1237
▁poletje	-10.1242
▁400	-10.1244
▁osebnega	-10.1247
▁okolja	-10.1248
▁begunci	-10.125
▁vodstvom	-10.1252
▁€	-10.1256
▁nastopil	-10.1262
▁tekmovanja	-10.1263
▁govor	-10.1266
▁premagal	-10.1267
▁kulturo	-10.1269
▁kpk	-10.1274
▁prostore	-10.128
▁trening	-10.1281
▁določa	-10.1282
▁organi	-10.1282
▁najde	-10.1284
▁srednje	-10.1286
▁—	-10.1288
ler	-10.1291
▁varstvo	-10.1294
▁označil	-10.1297
▁sporazuma	-10.131
▁mobilnih	-10.1312
▁)	-10.1325
▁odru	-10.1326
▁pomembne	-10.1327
▁2019	-10.1327
▁slednji	-10.1329
▁pridejo	-10.1338
▁umor	-10.1341
▁trumpa	-10.1353
▁kolo	-10.1355
,''	-10.1358
▁šli	-10.1361
▁čelu	-10.1361
gen	-10.1363
▁šola	-10.1367
▁snovi	-10.1371
▁nadaljevanje	-10.1373
▁trikrat	-10.1373
▁mestni	-10.138
▁trači	-10.1386
▁kriv	-10.1389
▁doseči	-10.1389
▁kaznivega	-10.1395
▁državljanov	-10.1396
▁izkazalo	-10.1397
▁morje	-10.1407
▁vid	-10.1409
▁živijo	-10.1414
▁zbrali	-10.1416
▁maze	-10.1416
acijo	-10.1417
rni	-10.142
▁znak	-10.142
▁velikokrat	-10.1421
▁34	-10.1422
▁kože	-10.1424
▁spremembo	-10.1428
▁rekla	-10.1441
0.000	-10.1443
▁plačilo	-10.1446
▁potrebna	-10.1447
▁dokaz	-10.1453
▁ocenjuje	-10.1456
▁letno	-10.1463
▁at	-10.1466
oma	-10.147
stvu	-10.1476
id	-10.1479
▁andreja	-10.1481
▁kršitev	-10.1481
▁točnoto	-10.1487
▁korist	-10.1491
▁uradni	-10.1492
▁omenjeni	-10.1496
▁društvo	-10.15
▁premoženja	-10.1502
lek	-10.1503
▁vratar	-10.1505
▁povprečju	-10.1508
rd	-10.1508
▁nba	-10.1512
▁št	-10.1513
▁četudi	-10.1515
▁tiskovni	-10.1531
▁telefona	-10.1534
▁lestvici	-10.1539
pod	-10.1539
▁odnose	-10.154
▁poceni	-10.1541
▁napadalec	-10.155
▁hitreje	-10.1552
▁šov	-10.1553
▁pokazali	-10.1557
▁recimo	-10.1557
▁plačati	-10.1557
▁portal	-10.1558
▁prihodkov	-10.1558
▁jezik	-10.1563
nc	-10.1563
▁dekleta	-10.1564
▁polovico	-10.157
▁okus	-10.1574
▁nobenih	-10.1581
▁hotela	-10.1587
▁knjigo	-10.1595
▁obrambo	-10.1598
▁%	-10.1599
let	-10.1599
▁nemčija	-10.1606
ple	-10.1609
▁globoko	-10.1613
▁težava	-10.1619
▁dragić	-10.162
▁splošno	-10.1622
▁verjamem	-10.1626
▁vsakega	-10.1626
▁sodeluje	-10.1637
▁iskanje	-10.1638
▁lep	-10.1638
▁vojno	-10.164
▁olimpije	-10.1643
čkov	-10.1644
rek	-10.1646
▁gibanje	-10.1652
▁tuji	-10.1656
▁papež	-10.1657
▁koncem	-10.1658
▁zatrdil	-10.166
▁željo	-10.166
▁židan	-10.1663
▁organizacija	-10.1664
▁mogla	-10.1667
ično	-10.1667
▁koga	-10.1677
40	-10.1678
▁vrnila	-10.1684
lar	-10.1686
▁zanje	-10.1691
▁naslovom	-10.1702
tom	-10.1703
▁izbor	-10.1703
▁reprezentanca	-10.1704
▁zahtevo	-10.1706
▁objavili	-10.1707
▁zagreb	-10.1711
▁mesece	-10.1711
ul	-10.1712
▁nastala	-10.1712
▁tip	-10.1712
▁igrali	-10.1716
▁fant	-10.1718
grad	-10.1721
cija	-10.1723
▁tista	-10.173
▁poslali	-10.1733
▁zunanje	-10.1739
čev	-10.174
▁celju	-10.1741
▁spletne	-10.1743
▁napadov	-10.1747
▁talent	-10.1758
▁komu	-10.1763
▁razmišlja	-10.1763
škega	-10.1765
▁znanja	-10.1768
▁režiser	-10.1775
▁planet	-10.1778
▁sodeloval	-10.1779
▁dutb	-10.1788
▁osvojila	-10.1796
▁živ	-10.18
kri	-10.1801
▁rusijo	-10.1802
▁as	-10.1809
▁uživa	-10.1812
▁zraka	-10.1816
▁drago	-10.182
▁26.	-10.1821
▁razliko	-10.1823
▁nogometne	-10.1825
rs	-10.1828
▁predstavila	-10.1828
▁zapustil	-10.1833
▁sobota	-10.1836
▁prometno	-10.1843
▁potrebujemo	-10.1843
▁notranji	-10.1844
▁upravljanje	-10.1846
▁evro	-10.1848
▁pgd	-10.1851
▁takih	-10.1852
▁lanskega	-10.1853
▁učinkovito	-10.1853
ras	-10.1856
▁ranjenih	-10.1857
▁epa	-10.1857
▁osebi	-10.1861
▁tla	-10.1862
▁nekako	-10.1863
▁gi	-10.1863
alno	-10.1872
▁povzročil	-10.1874
▁stik	-10.1879
vno	-10.1879
▁novic	-10.1881
▁posebnega	-10.1882
▁članic	-10.1886
▁akcijo	-10.1889
▁izobraževanje	-10.1891
he	-10.1903
▁obama	-10.1903
▁tre	-10.1911
▁pismo	-10.1911
▁obstajajo	-10.1912
▁razmerje	-10.1915
▁gospodarski	-10.1916
▁ideja	-10.1918
bar	-10.192
▁ples	-10.1921
▁državnih	-10.1925
▁začetkom	-10.1928
tvijo	-10.1937
▁olimpijskih	-10.1942
▁cel	-10.1945
▁alkohol	-10.195
▁kolegi	-10.1951
▁stroški	-10.1952
▁pogajanja	-10.1961
▁sil	-10.1965
met	-10.1965
▁kariero	-10.1969
▁novost	-10.1971
▁razvoja	-10.1972
šol	-10.1975
▁morem	-10.1978
▁severni	-10.1979
▁zrak	-10.1982
▁novak	-10.1986
▁starejši	-10.1989
▁sodbo	-10.199
▁36	-10.1992
▁voditelj	-10.1994
▁iskal	-10.1999
▁1000	-10.1999
izem	-10.2004
▁orožja	-10.2006
▁službi	-10.201
▁neko	-10.2012
▁napade	-10.2012
▁bolnikov	-10.2014
▁odgovornosti	-10.2016
zen	-10.2019
▁mirno	-10.202
nič	-10.2021
▁tiskovne	-10.2023
▁povedati	-10.2024
▁isto	-10.2025
▁sreče	-10.2026
▁and	-10.2035
rje	-10.2038
▁triki	-10.2052
▁naredi	-10.2057
▁poslovanja	-10.2057
▁vztraja	-10.206
ložen	-10.2061
▁stanovanj	-10.2062
▁priti	-10.2062
▁narašča	-10.2064
▁triglav	-10.2071
▁tretjem	-10.2075
▁fe	-10.2077
▁letošnjem	-10.2081
▁daje	-10.2089
tel	-10.209
▁dpa	-10.209
2016	-10.2091
stri	-10.2093
▁kroga	-10.2093
▁trenerja	-10.2095
▁obvestili	-10.2095
▁ljubljanskem	-10.2095
odstotno	-10.2099
▁enote	-10.2105
▁oblačila	-10.2105
▁pripravi	-10.2111
▁zatem	-10.2116
fer	-10.2118
▁tistega	-10.2134
▁prestolnici	-10.2143
▁sistemu	-10.2143
▁predstavljajo	-10.2143
▁pogoji	-10.2144
▁tro	-10.2149
▁polovica	-10.2149
▁hr	-10.2155
▁dvig	-10.2155
rka	-10.2157
nske	-10.2159
▁hrana	-10.2168
letnica	-10.2169
bit	-10.217
▁kandidata	-10.2171
▁pripeljal	-10.2173
▁klubu	-10.2175
skimi	-10.2181
▁okolici	-10.2185
▁slabše	-10.2189
▁gola	-10.2189
▁sprejem	-10.219
▁čast	-10.2192
ps	-10.2204
▁glavi	-10.2205
▁predsedniku	-10.2213
▁trend	-10.2214
▁posebne	-10.2222
mp	-10.2222
stra	-10.2223
dob	-10.2228
▁rob	-10.2229
bel	-10.2231
▁sprožil	-10.2234
▁rešili	-10.2235
▁bolnišnice	-10.2239
▁telekom	-10.2241
▁drog	-10.2241
▁2007	-10.2245
▁moža	-10.2245
nova	-10.2256
▁rojstni	-10.2258
▁izvoz	-10.2261
▁izkušenj	-10.2261
nska	-10.2264
▁nepravilnosti	-10.2267
lič	-10.2268
jevo	-10.2272
▁pričakujemo	-10.2274
▁prepričana	-10.2278
▁telefonov	-10.2279
▁manchester	-10.2279
▁akcija	-10.2279
▁nahaja	-10.2284
▁primož	-10.2291
▁fotografij	-10.2293
▁izvaja	-10.2295
▁37	-10.2297
▁prihodu	-10.2298
▁maj	-10.2301
▁rossi	-10.2305
▁služba	-10.2307
’	-10.2308
▁zn	-10.2309
▁vodenje	-10.231
por	-10.2314
▁nalog	-10.2314
▁zahteve	-10.232
▁vaje	-10.2323
▁moralo	-10.2324
▁standard	-10.2325
▁luč	-10.2328
▁ostalih	-10.233
niti	-10.2331
▁klopi	-10.2331
ist	-10.2332
▁obračun	-10.2336
▁hrani	-10.2337
▁prihod	-10.2337
rija	-10.2339
▁london	-10.2342
▁potnikov	-10.2344
▁razreda	-10.2351
▁terenu	-10.2354
druž	-10.236
▁ukrajine	-10.2361
▁razred	-10.2362
▁dokončno	-10.2368
▁očeta	-10.2369
▁odprli	-10.2372
▁kakšni	-10.2379
▁roka	-10.238
▁prijatelj	-10.2381
▁pres	-10.2382
pet	-10.2387
▁pomen	-10.2388
▁pomena	-10.2388
▁študij	-10.239
▁album	-10.2392
▁poškodb	-10.2396
▁rastlin	-10.2399
▁točko	-10.24
▁sojenje	-10.2403
▁kontakt	-10.2403
▁rekli	-10.2408
rin	-10.2413
▁iphone	-10.2418
▁zagotoviti	-10.2418
▁kolesar	-10.2424
▁nagrad	-10.2427
▁38	-10.2429
▁planin	-10.2431
▁27.	-10.2435
▁ronaldo	-10.2436
▁oddaja	-10.2436
▁narave	-10.2438
▁gospodarsko	-10.244
?!	-10.2444
▁oblast	-10.2448
▁trgovine	-10.2451
▁var	-10.2453
▁medije	-10.2453
▁področje	-10.2454
▁priprave	-10.2455
sk	-10.2455
kla	-10.2464
▁glasbeni	-10.2467
▁napako	-10.2467
▁nižje	-10.2469
▁mer	-10.2473
▁reči	-10.248
▁vozniki	-10.2486
▁pomagala	-10.2491
▁john	-10.2492
▁moji	-10.2496
▁žalost	-10.2497
▁dež	-10.2498
▁gospodarstva	-10.25
▁vzel	-10.2502
▁okvir	-10.2506
▁srbski	-10.2507
▁plus	-10.2508
▁spreminja	-10.2512
▁ša	-10.2512
▁namenjen	-10.2512
▁avstrijski	-10.2515
▁govoril	-10.2518
▁šarec	-10.2519
▁sreča	-10.2519
čas	-10.2529
▁potres	-10.2533
▁delnice	-10.2536
▁material	-10.2536
▁gore	-10.2537
▁varnostne	-10.2544
▁lastni	-10.2551
tudi	-10.2552
ll	-10.2552
▁kratkem	-10.2552
vse	-10.2553
▁razume	-10.2554
▁sezona	-10.2556
▁zdravstvenih	-10.2556
▁avtobus	-10.2567
▁prevzem	-10.2568
▁sodni	-10.2571
▁razlaga	-10.2571
▁postali	-10.2571
nko	-10.2572
▁janeza	-10.2575
▁želje	-10.2579
▁klemen	-10.2579
tur	-10.258
▁proračuna	-10.2581
▁luke	-10.2587
▁zdravnikov	-10.2588
▁pojav	-10.2594
ana	-10.2604
▁sedmih	-10.2605
▁gredo	-10.2609
▁ljubljanske	-10.261
▁slovenec	-10.2613
▁65	-10.2613
▁razlika	-10.2614
▁simon	-10.2615
­	-10.2619
▁zmanjša	-10.262
▁iger	-10.2621
▁srečanju	-10.2625
▁pristop	-10.2627
▁poziv	-10.2628
▁opozorilo	-10.2628
▁političnih	-10.2632
▁nanj	-10.2636
vna	-10.2642
▁kaznivih	-10.2644
▁revije	-10.2648
▁75	-10.2653
um	-10.2655
wa	-10.2657
iral	-10.2659
▁dogodki	-10.266
vali	-10.2666
jmo	-10.2672
van	-10.2673
▁omrežja	-10.2675
▁policista	-10.2679
delo	-10.268
▁same	-10.2685
nejši	-10.2685
▁neverjetno	-10.2686
▁hvala	-10.2687
▁zvezdnica	-10.2687
izma	-10.2689
▁gradnjo	-10.2694
▁seksi	-10.2694
▁direktorica	-10.2696
▁!	-10.2696
▁finančnih	-10.2697
▁verjame	-10.27
▁italijan	-10.2703
▁ženo	-10.2704
ković	-10.2705
sel	-10.2706
▁saša	-10.271
▁zlorabe	-10.2711
jeve	-10.2714
▁dirki	-10.2723
▁minute	-10.2728
▁izdelke	-10.2728
▁princ	-10.2734
▁nemudoma	-10.2739
▁člana	-10.2751
▁uspe	-10.2756
▁datum	-10.2756
▁oni	-10.2757
▁raziskava	-10.2762
kon	-10.2769
▁brezplačno	-10.2774
▁polčasu	-10.2779
▁govoriti	-10.2782
▁zavrnil	-10.2783
▁neke	-10.2786
▁rešil	-10.2788
▁orožje	-10.2796
▁31	-10.2796
▁presenečenje	-10.2798
▁prinesel	-10.28
▁izvedli	-10.2802
''	-10.2802
ak	-10.2804
▁zvezda	-10.2806
▁razredu	-10.2811
▁),	-10.2814
▁česa	-10.2815
▁zadnjo	-10.2816
▁bri	-10.2817
▁test	-10.282
▁kra	-10.2826
▁socialne	-10.2827
sod	-10.2827
▁mesecu	-10.283
▁zdravi	-10.2831
▁galaxy	-10.2835
▁prodaji	-10.2836
▁infrastrukturo	-10.2838
▁doda	-10.2849
▁odgovarja	-10.2853
▁ep	-10.2857
▁uroš	-10.2866
▁povezana	-10.2868
▁for	-10.287
▁bolečine	-10.2873
▁urban	-10.2874
”.	-10.2876
bri	-10.2877
!«	-10.2878
%	-10.2879
gr	-10.2884
▁razlike	-10.2884
▁nekoga	-10.2886
▁evropa	-10.2888
▁telesne	-10.289
▁stečaj	-10.2891
▁status	-10.2899
▁storiti	-10.2899
ok	-10.2901
▁tehnologije	-10.2902
▁van	-10.2903
bor	-10.2906
▁vodilni	-10.2912
▁nasilje	-10.2915
ff	-10.292
▁lastno	-10.2921
▁pravil	-10.2927
▁rdeče	-10.2928
stop	-10.2931
▁moraš	-10.2933
▁moštvo	-10.2936
▁enim	-10.2937
▁moške	-10.294
15	-10.294
▁kak	-10.2943
▁odzval	-10.2943
▁vip	-10.2946
▁letališču	-10.2948
▁nekje	-10.2951
▁bbc	-10.2953
▁vozili	-10.296
▁dirko	-10.2962
▁obvestil	-10.2962
▁delujejo	-10.2965
▁denis	-10.2965
▁štirimi	-10.2969
▁big	-10.2971
▁messi	-10.2981
▁prijeli	-10.2984
▁moti	-10.2992
▁takšnega	-10.2992
▁državljan	-10.3002
čil	-10.3003
▁pomlad	-10.3005
▁stanja	-10.3006
▁ustavi	-10.3007
▁mobilne	-10.3009
▁priznala	-10.3011
▁indeks	-10.3013
▁opravlja	-10.3019
▁pametnih	-10.302
▁uspeli	-10.302
▁potekajo	-10.3022
▁razmerah	-10.3022
rska	-10.3023
▁prevzela	-10.3023
▁znanih	-10.3027
▁ponudbe	-10.3034
▁vrtu	-10.3038
acije	-10.3041
dela	-10.3046
▁spi	-10.3046
▁starih	-10.3047
▁han	-10.3054
▁prijateljev	-10.3059
▁sodniki	-10.3059
▁ljubi	-10.3063
▁stane	-10.3064
▁takšni	-10.3068
▁prostem	-10.307
▁plin	-10.3073
▁drugod	-10.3076
▁tehnologijo	-10.3082
▁bruselj	-10.3085
▁para	-10.3087
▁zgodovino	-10.3092
▁dirke	-10.3093
rna	-10.3098
▁zraven	-10.3107
▁zaupanje	-10.311
ger	-10.3111
▁sporedu	-10.3113
stro	-10.3117
▁dovoljenja	-10.3118
▁gospod	-10.312
▁povsod	-10.312
▁ap	-10.3123
▁težje	-10.3124
▁nogometaš	-10.3128
▁42	-10.3128
vati	-10.3129
▁izbran	-10.3133
naj	-10.3137
▁telesno	-10.3138
▁st	-10.3138
▁napovedujejo	-10.314
▁tim	-10.314
▁visoka	-10.3141
▁poskušal	-10.3143
▁zadnjega	-10.3146
nejše	-10.3146
▁ukrep	-10.3147
▁računa	-10.3148
log	-10.315
▁dopolnil	-10.3152
▁cerkve	-10.3153
▁nadvse	-10.3154
▁čaj	-10.3155
▁odličen	-10.3155
▁znašel	-10.3155
▁velikem	-10.3163
▁znanstveniki	-10.3166
niški	-10.3166
▁ženski	-10.3166
▁spremenil	-10.317
▁predsednikom	-10.3176
▁poškodovanih	-10.3179
▁podobne	-10.318
▁kapital	-10.3185
2017	-10.3186
▁številke	-10.3189
▁tanja	-10.319
▁poplav	-10.3194
▁sodelovali	-10.3196
▁dala	-10.3201
spe	-10.3202
▁dovoljenje	-10.3204
▁dali	-10.3204
smeh	-10.3204
ts	-10.3209
▁glavno	-10.3209
▁internet	-10.3211
ya	-10.3211
video	-10.3212
▁očita	-10.3219
▁pis	-10.322
▁razvoju	-10.3226
kup	-10.3227
▁opozorili	-10.3228
▁washington	-10.3231
▁kap	-10.3233
▁knjiga	-10.3233
▁michael	-10.3234
▁tistem	-10.3236
▁city	-10.3237
▁operacijo	-10.3238
▁reprezentant	-10.3244
▁ubil	-10.3247
▁domnevno	-10.3248
▁redko	-10.3253
▁varnostni	-10.3255
ir	-10.3259
sled	-10.3261
▁pohod	-10.3262
lju	-10.3262
▁les	-10.3262
▁nasprotju	-10.3264
čnih	-10.3266
▁most	-10.3268
▁razkriva	-10.3272
▁narod	-10.3273
▁sklepa	-10.3273
▁regiji	-10.3274
▁pas	-10.3276
ključ	-10.3278
▁rodila	-10.3278
ty	-10.3278
▁uporaba	-10.3278
▁pripravo	-10.3282
▁paket	-10.3285
▁ton	-10.3286
▁pilot	-10.3287
▁španski	-10.3288
▁kakovosti	-10.3288
▁podpisal	-10.329
▁lokalnih	-10.3291
▁take	-10.3291
▁partnerjev	-10.3293
▁slaba	-10.3293
▁nosil	-10.3294
▁stroj	-10.3301
▁točkami	-10.3304
▁rib	-10.3305
▁kriminal	-10.3306
▁ulice	-10.3308
▁spremeniti	-10.3316
▁prejšnjega	-10.3316
▁sodi	-10.3318
▁opravila	-10.3319
▁cest	-10.333
▁ujeli	-10.3335
čnega	-10.3338
kot	-10.3339
▁doživel	-10.334
▁microsoft	-10.3345
!"	-10.3345
▁sladkorja	-10.3345
▁ugotovila	-10.3351
▁predstavnica	-10.3357
▁domačem	-10.3357
▁posameznih	-10.3359
tal	-10.336
▁uporabnikom	-10.3362
▁sodnica	-10.3363
▁posredovali	-10.3364
▁nastopila	-10.3367
▁olje	-10.3376
▁prehodu	-10.3378
▁zakonodaje	-10.3381
▁napovedala	-10.3385
▁vozi	-10.3387
▁spletno	-10.339
▁današnjem	-10.3395
▁simbol	-10.3397
▁obali	-10.3397
▁vloge	-10.3397
▁kro	-10.3398
žni	-10.3399
▁delali	-10.3403
▁55	-10.3403
▁kanal	-10.3409
▁oblačno	-10.3411
▁ustvarja	-10.3413
▁spoznala	-10.3414
▁priče	-10.3417
dar	-10.342
▁milijone	-10.3421
▁roki	-10.3422
▁oddajo	-10.3425
▁nasprotno	-10.3429
ških	-10.343
▁članice	-10.3445
▁srbiji	-10.3447
▁cerarja	-10.3451
▁48	-10.3454
▁dejavnost	-10.3457
vanja	-10.3458
▁kupil	-10.3462
▁opravi	-10.3468
agencija	-10.3468
jan	-10.3469
▁namenom	-10.3469
▁vidimo	-10.347
rad	-10.3473
▁yorku	-10.3474
dol	-10.3475
▁skupnem	-10.3481
▁peš	-10.3484
▁otoku	-10.3495
▁varnostnih	-10.3496
ični	-10.3497
▁živil	-10.3498
tt	-10.3503
▁vina	-10.3504
▁poslovanje	-10.3506
▁navadi	-10.3507
▁olja	-10.3507
▁premoženje	-10.3509
▁ruske	-10.351
▁vsebin	-10.3514
▁odšel	-10.3516
kova	-10.3519
▁nekdaj	-10.3522
▁prepeljali	-10.3522
▁osnovi	-10.3525
▁vaši	-10.3528
▁začenja	-10.3528
šen	-10.353
▁pridružil	-10.3534
▁visoki	-10.3534
▁obisku	-10.3539
▁potrebovali	-10.354
▁male	-10.354
▁justin	-10.3543
▁medijih	-10.3547
▁šovu	-10.3552
▁ok	-10.3555
▁pokaže	-10.3562
▁organizacij	-10.3562
▁jernej	-10.3565
▁staro	-10.3565
▁izjavo	-10.3566
▁žan	-10.3569
▁človekove	-10.357
arja	-10.357
▁igrah	-10.3571
▁takega	-10.358
▁državljani	-10.3587
ant	-10.3589
▁meso	-10.359
▁scenarij	-10.3591
▁izvedel	-10.3593
▁gleda	-10.3601
▁sanje	-10.3605
▁izbrali	-10.3605
▁človekovih	-10.3605
▁zeleno	-10.3605
▁naravi	-10.3612
▁širi	-10.3613
▁rešiti	-10.3615
▁padavine	-10.3615
god	-10.3615
▁urad	-10.3617
anja	-10.3617
▁zabava	-10.3618
▁sch	-10.362
iranje	-10.362
▁pustil	-10.3622
▁določenih	-10.3622
▁nami	-10.3622
▁ven	-10.3624
▁otok	-10.3624
▁ponudil	-10.3625
rod	-10.3629
▁kulture	-10.3629
▁generacije	-10.3629
▁belo	-10.3634
▁pogovori	-10.3635
izacije	-10.3637
▁kratko	-10.3637
▁stopil	-10.3638
▁motiv	-10.3638
▁novosti	-10.364
▁imaš	-10.3648
▁vrnili	-10.365
ovanju	-10.3651
▁golov	-10.3659
▁sedež	-10.3659
nec	-10.3662
▁potencial	-10.3669
▁poveča	-10.367
▁anti	-10.3674
šča	-10.3677
▁znane	-10.3677
▁psa	-10.3677
▁imenom	-10.368
▁dolgi	-10.3684
▁bruto	-10.3697
▁pomanjkanje	-10.3698
ot	-10.3701
▁novinar	-10.3702
▁liga	-10.3703
▁lase	-10.3705
▁vprašanj	-10.3706
▁nimamo	-10.3706
▁zagotovili	-10.3708
▁dol	-10.3708
▁pustite	-10.3717
▁smislu	-10.372
gra	-10.3723
ične	-10.3723
▁poslovni	-10.3724
ris	-10.3726
▁njihovega	-10.3729
05	-10.3731
▁ljubljano	-10.3732
▁ev	-10.3741
▁dončić	-10.3741
▁fazi	-10.3746
pra	-10.3747
▁kazensko	-10.3749
▁domen	-10.375
▁odlična	-10.3751
▁zastoj	-10.3752
▁wi	-10.3753
▁mišice	-10.3754
▁dalje	-10.3755
▁ogenj	-10.3755
▁pripravljajo	-10.3758
▁končni	-10.376
▁ideje	-10.3761
pos	-10.3765
▁reke	-10.3767
min	-10.3775
▁postaje	-10.3778
▁policiste	-10.3778
lep	-10.378
▁preteklih	-10.3781
▁lastnika	-10.3784
▁spremenila	-10.3786
▁nimam	-10.3786
▁bratuškova	-10.3787
▁dreves	-10.3788
rski	-10.3793
▁spomnimo	-10.3793
▁starost	-10.3794
▁levi	-10.3795
▁koalicije	-10.3796
▁migranti	-10.38
▁fantje	-10.3805
▁cu	-10.3806
▁predstavi	-10.3817
▁muzej	-10.3819
letne	-10.3819
▁programu	-10.3819
▁obiskal	-10.3819
▁prinesla	-10.382
lca	-10.3821
▁fer	-10.3827
lan	-10.3831
▁zdravljenja	-10.3833
▁kredit	-10.3835
▁odpira	-10.3837
▁navdušen	-10.3841
dan	-10.3844
▁bodite	-10.3847
▁njemu	-10.3849
▁izboljša	-10.3854
▁rep	-10.3854
▁vino	-10.386
▁oceno	-10.3862
▁metra	-10.3862
▁sklada	-10.3863
šič	-10.3865
▁predmet	-10.387
th	-10.387
▁osmih	-10.3875
▁zavarovanje	-10.3876
▁naloge	-10.3876
▁povzroči	-10.3877
▁sodbe	-10.3878
stre	-10.3881
▁mrežo	-10.3881
▁francija	-10.3881
ročen	-10.3884
vne	-10.3886
▁fo	-10.3887
▁skušal	-10.3888
▁poslanske	-10.389
▁pobudo	-10.3891
▁tretja	-10.3895
▁akcije	-10.3896
▁sindikata	-10.3896
▁glasbenik	-10.3897
ator	-10.39
▁prosti	-10.39
▁bližnji	-10.3902
▁instagramu	-10.391
išča	-10.3916
▁sooča	-10.3916
▁kvalifikacijah	-10.3918
▁dnevne	-10.392
ej	-10.3922
▁začele	-10.3922
▁naziv	-10.3922
▁sektorja	-10.3922
tično	-10.3923
▁sv	-10.3925
pad	-10.3928
▁gibanja	-10.3928
▁moto	-10.3931
▁sledil	-10.3932
▁31.	-10.3937
▁medicinske	-10.3939
med	-10.3943
nda	-10.3948
▁mol	-10.3949
▁tovornjak	-10.3949
▁tekmovanje	-10.3952
▁pogajanj	-10.3953
▁strast	-10.3954
▁poslovnih	-10.3954
vih	-10.3961
▁pokalu	-10.3962
pp	-10.3965
ij	-10.3965
▁strokovno	-10.3967
▁prave	-10.3968
▁lokalni	-10.397
drž	-10.3973
nar	-10.3974
acija	-10.3975
▁ugled	-10.3982
nder	-10.3984
▁mala	-10.3987
▁james	-10.399
▁strinja	-10.3991
▁šteje	-10.3996
letnika	-10.4
▁pretežno	-10.4002
▁ustvarjal	-10.4003
▁poslovne	-10.4008
▁nevarno	-10.4011
▁festivala	-10.4013
▁zvezd	-10.4013
▁nadaljevala	-10.402
alni	-10.4021
▁ostajajo	-10.4022
▁svojemu	-10.4025
▁uvrstitev	-10.4025
▁pogon	-10.4025
▁francoz	-10.4029
▁fizično	-10.4034
▁tal	-10.4037
▁vtis	-10.4037
▁kompleks	-10.4043
ino	-10.4044
▁28.	-10.4047
▁zvezde	-10.4052
2014	-10.4053
▁svetovnih	-10.4058
slav	-10.4059
▁desni	-10.4061
▁dirka	-10.4063
▁zdravstvenega	-10.4063
▁skupnost	-10.4064
▁porod	-10.4065
▁plaz	-10.4066
dri	-10.4066
▁eva	-10.4066
▁težavah	-10.4067
▁ostro	-10.4069
▁mojem	-10.407
▁vidijo	-10.4072
▁pripravila	-10.4073
▁šol	-10.4076
▁kandidati	-10.4079
://	-10.4081
▁stranko	-10.4082
▁gostje	-10.4087
▁jaka	-10.4088
▁volitvami	-10.4092
▁premagali	-10.4093
▁objavi	-10.4097
▁general	-10.4099
vin	-10.4106
▁bra	-10.4107
▁popolno	-10.4113
čku	-10.4114
▁kvalifikacij	-10.4115
▁temi	-10.412
▁vladimir	-10.4123
▁zaključil	-10.4125
▁eur	-10.4125
▁vidim	-10.4125
▁živeti	-10.4131
▁nemške	-10.4134
&	-10.4135
▁oškodovan	-10.414
▁vodila	-10.414
▁vojakov	-10.414
▁izrael	-10.4141
ad	-10.4142
▁rock	-10.4144
▁izhaja	-10.4144
▁izvedeli	-10.4145
▁nogomet	-10.4147
▁gledalci	-10.415
▁sklenil	-10.4152
▁zahtev	-10.4155
▁idej	-10.4155
▁zahtevali	-10.4157
▁učinek	-10.4159
▁rog	-10.416
▁priznava	-10.4164
▁kan	-10.4165
▁dokument	-10.4169
nke	-10.4171
▁sladkor	-10.4172
▁ovira	-10.4173
▁marsikaj	-10.4174
▁mami	-10.4177
▁nenehno	-10.4183
▁mandata	-10.4186
▁intervju	-10.4186
▁izdelek	-10.4187
▁sledila	-10.4187
▁hit	-10.4188
▁umora	-10.4191
▁mira	-10.4196
▁državnem	-10.4196
▁urada	-10.4201
▁postaji	-10.4203
tne	-10.4206
▁er	-10.4206
▁ulicah	-10.4207
▁sanja	-10.421
▁mini	-10.4215
▁ljubljanskega	-10.4215
▁veseljem	-10.4217
gli	-10.4217
▁dobijo	-10.4218
▁stal	-10.4221
▁pridobil	-10.4225
▁begunce	-10.4228
▁članica	-10.423
▁bodisi	-10.4231
▁napak	-10.4235
▁videla	-10.4239
▁obrok	-10.4242
▁drugačen	-10.4243
▁šok	-10.4243
jšo	-10.4245
▁slišati	-10.4247
▁prehrano	-10.4251
▁modni	-10.4255
▁jurij	-10.4259
jevi	-10.4264
▁projektu	-10.4265
un	-10.4267
▁namenjena	-10.4276
ut	-10.4277
ena	-10.4277
▁novinarji	-10.4278
▁damjan	-10.4285
▁izjave	-10.429
▁praznik	-10.4293
▁kranju	-10.4293
▁izvedbo	-10.4295
ciji	-10.4296
▁enajst	-10.4298
▁zasluži	-10.4301
▁prometnih	-10.4302
▁pevec	-10.4305
▁združenih	-10.4307
▁zapis	-10.4308
▁us	-10.4308
▁aplikacije	-10.431
bli	-10.4312
▁osrednji	-10.4313
▁premierja	-10.4313
▁uspešni	-10.4315
▁simbolična	-10.4328
▁www	-10.4329
▁sindikati	-10.4329
.”	-10.433
▁povezani	-10.4335
▁mamo	-10.4336
▁zasegli	-10.4337
▁zlata	-10.4338
▁dobiti	-10.434
▁igrišču	-10.434
▁izpostavlja	-10.4351
▁vnaprej	-10.4353
▁nedvomno	-10.4355
▁rodil	-10.436
▁sliši	-10.436
▁dokazov	-10.4363
▁pojavi	-10.4363
▁letni	-10.4369
▁priznanje	-10.437
▁kopru	-10.4373
▁upanje	-10.4379
▁zbral	-10.4382
▁sliko	-10.4383
▁požara	-10.4385
▁količino	-10.4387
▁tožbo	-10.4389
▁kom	-10.439
▁lastne	-10.439
▁krivi	-10.4393
▁zdravnika	-10.4394
▁najboljšo	-10.4398
odstotni	-10.44
▁odprta	-10.4402
▁navijačev	-10.4405
▁udar	-10.4405
▁povezane	-10.4411
gan	-10.4419
▁bel	-10.442
▁44	-10.4421
▁č	-10.4422
▁krizo	-10.4424
▁ostati	-10.4424
▁mrtvih	-10.4425
▁trgovini	-10.4426
▁povezave	-10.4428
▁stopnjo	-10.4429
▁nemogoče	-10.4429
▁virov	-10.4432
▁terjatev	-10.4443
▁250	-10.4447
▁podjetjem	-10.4447
we	-10.4447
pel	-10.4448
▁strokovni	-10.4448
▁toplo	-10.4449
▁hranil	-10.445
▁karl	-10.4454
▁mercator	-10.4454
▁številu	-10.4456
▁napisal	-10.4458
▁dokaj	-10.4459
▁osnovne	-10.4459
▁spremljali	-10.446
▁spremeni	-10.4461
▁vnovič	-10.4462
nskega	-10.4465
▁zadevo	-10.4466
▁predlogu	-10.4471
▁odhod	-10.4475
▁29.	-10.4476
▁profesor	-10.4481
▁odprl	-10.4482
▁mark	-10.4485
▁neuradno	-10.4486
fo	-10.4488
▁slab	-10.4488
▁zamenjal	-10.4495
▁spremenilo	-10.4497
ini	-10.4499
▁vedela	-10.4499
tis	-10.45
▁grad	-10.4504
▁posamezne	-10.4504
▁računalniške	-10.4504
leta	-10.4509
▁levo	-10.4518
▁nadaljevali	-10.4519
▁vsaki	-10.4522
▁inštituta	-10.4522
niške	-10.4523
▁gru	-10.4526
▁lepa	-10.4529
▁oder	-10.4532
▁koncept	-10.4532
▁počuti	-10.4532
▁ameriško	-10.4533
som	-10.4544
▁volje	-10.4549
▁svetoval	-10.4552
▁mlada	-10.4553
▁bivši	-10.4562
▁računalnik	-10.4568
▁ligo	-10.4573
▁vozilom	-10.4575
▁poudarjajo	-10.4579
▁referenduma	-10.458
▁državna	-10.458
▁ponujajo	-10.4581
itev	-10.4582
▁bdp	-10.4584
rn	-10.459
▁preizkus	-10.4598
▁iskali	-10.4603
▁študija	-10.4604
▁živel	-10.4604
▁kariere	-10.4607
▁vrniti	-10.461
▁seznamu	-10.4613
▁obrat	-10.4615
▁grob	-10.4617
▁ustavil	-10.4618
▁organizatorji	-10.4622
▁virus	-10.4627
▁nos	-10.4628
▁tveganja	-10.4629
koli	-10.463
▁količine	-10.463
90	-10.4632
▁pripravil	-10.4635
▁instagram	-10.4639
škem	-10.4642
▁46	-10.4643
▁lastnosti	-10.4644
▁upravo	-10.4646
▁kitajska	-10.4651
▁izdelki	-10.4651
▁govorimo	-10.4659
▁ekip	-10.4669
▁bur	-10.467
▁profil	-10.467
▁laško	-10.467
▁sporoča	-10.467
▁filip	-10.4672
▁43	-10.4672
▁pozitivne	-10.4673
▁škandal	-10.4677
cha	-10.4677
▁spada	-10.4681
▁rusije	-10.4682
▁napaka	-10.4685
▁vrsta	-10.4686
as	-10.4687
▁krvni	-10.469
▁gr	-10.4692
▁medved	-10.4699
▁dogajanja	-10.4699
▁kuha	-10.4701
▁slovenskim	-10.4707
▁kruh	-10.4713
▁krajih	-10.4718
▁sprehod	-10.4719
▁odločno	-10.4721
▁lokalne	-10.4726
▁priprav	-10.4727
+	-10.4728
▁igrati	-10.4731
▁edino	-10.4733
▁večera	-10.4733
▁funkcije	-10.4735
▁močna	-10.4738
▁@	-10.4738
▁čisti	-10.4738
▁zmagala	-10.4739
land	-10.4739
▁pravočasno	-10.474
▁družinski	-10.4741
▁spor	-10.4743
▁petka	-10.4747
šte	-10.4747
ilo	-10.4751
nila	-10.4751
▁ruskega	-10.4752
▁zeleni	-10.4752
for	-10.4754
▁20-	-10.476
▁najraje	-10.476
nd	-10.4762
▁veselje	-10.4762
▁juncker	-10.4769
▁zbora	-10.4771
▁upravlja	-10.4771
▁pošteno	-10.4772
▁ocenah	-10.4774
▁zaporu	-10.4775
▁kapetan	-10.4775
izacijo	-10.4777
▁prijatelja	-10.4778
rsko	-10.4778
▁padec	-10.478
▁zemlji	-10.4782
ment	-10.4782
▁aktivno	-10.4783
▁potrebne	-10.4785
▁barcelona	-10.4786
▁dušan	-10.4789
ers	-10.479
▁zagrebu	-10.4791
▁39	-10.4794
hu	-10.4796
▁potrebujete	-10.4797
▁rak	-10.4797
▁branil	-10.4798
▁twitter	-10.4799
▁41	-10.48
▁klic	-10.48
▁dvor	-10.4802
▁uspešen	-10.4803
▁predstavo	-10.4807
▁objekt	-10.4808
▁tednov	-10.4808
gla	-10.4813
▁partnerji	-10.4817
▁sektorju	-10.4819
vid	-10.4819
▁poslala	-10.4821
▁nina	-10.4826
▁prosto	-10.4831
▁sekunde	-10.4833
gel	-10.4833
▁najboljšega	-10.4846
▁najdemo	-10.4846
vni	-10.4847
▁fu	-10.4848
▁prostorov	-10.4853
▁vrne	-10.4855
▁sdh	-10.4858
tak	-10.4859
▁pozor	-10.4863
▁telefonu	-10.4864
niško	-10.4864
▁led	-10.4866
▁sposobnosti	-10.4867
▁morja	-10.4869
▁težo	-10.4873
▁posameznikov	-10.4873
▁con	-10.4876
▁kralj	-10.4883
▁nacionalni	-10.4885
▁zvezo	-10.4886
▁avstrija	-10.4887
▁huje	-10.4896
irati	-10.4897
▁teren	-10.4899
▁feat	-10.4904
▁stopnja	-10.4907
▁vojna	-10.4907
▁branko	-10.4908
ična	-10.4908
▁sum	-10.491
▁razloga	-10.4912
▁delovna	-10.4914
▁škof	-10.4914
▁pljuč	-10.4916
▁šu	-10.492
▁počitnice	-10.4922
▁goriva	-10.4924
▁kriza	-10.4926
▁zdravja	-10.4928
▁podpis	-10.4928
▁sestra	-10.4933
▁zdelo	-10.4933
▁objektov	-10.4934
▁ugotovil	-10.4935
ved	-10.4939
twitter	-10.4943
▁daljši	-10.4946
▁akciji	-10.4951
▁ravnanje	-10.4952
▁projektov	-10.4952
▁suma	-10.4953
▁pristal	-10.4954
▁rusi	-10.496
▁računalniški	-10.4961
▁civilne	-10.4961
▁samega	-10.4964
▁celic	-10.4964
več	-10.4965
ves	-10.4965
ik	-10.4976
▁vredno	-10.4977
é	-10.498
▁ukrajinski	-10.4981
▁umetnost	-10.4983
▁novico	-10.4984
▁športno	-10.4987
▁delovne	-10.4995
▁športne	-10.4996
▁krka	-10.4998
▁konča	-10.5003
▁sveže	-10.5004
▁podoben	-10.5006
zelo	-10.501
▁poseg	-10.5013
▁spoznal	-10.5014
▁doseže	-10.5015
▁jedi	-10.5015
gar	-10.5017
▁neiz	-10.5017
▁nek	-10.5025
▁postalo	-10.5026
▁napadi	-10.5026
▁odpeljal	-10.5027
▁120	-10.5029
▁davčne	-10.503
▁preiskavi	-10.503
▁marc	-10.5035
▁vožnji	-10.5036
▁radio	-10.5045
▁zaprt	-10.5051
▁mr	-10.5053
▁kitajskem	-10.5056
▁pasu	-10.5056
sla	-10.5056
nite	-10.506
▁napovedali	-10.5062
▁posojil	-10.5063
▁korupcije	-10.5065
▁starejših	-10.5067
▁dragi	-10.5067
▁•	-10.5069
▁obiskovalci	-10.507
▁dogajalo	-10.5072
▁tir	-10.5073
▁2006	-10.5074
▁računov	-10.5074
▁izdala	-10.5075
ral	-10.5077
▁osnovni	-10.5077
br	-10.5079
▁hitri	-10.508
▁gledalcev	-10.5083
▁pozorni	-10.5084
▁poslovno	-10.5084
▁znajo	-10.5085
▁mursk	-10.5089
▁kur	-10.5089
imo	-10.5094
▁delovni	-10.5095
▁vidika	-10.5095
wi	-10.5096
mir	-10.5096
▁glave	-10.5099
▁prodajal	-10.51
▁nikogar	-10.5102
▁un	-10.5103
▁mestne	-10.5106
▁ureditev	-10.5108
▁nemčije	-10.511
▁nastal	-10.5111
▁preživela	-10.5112
▁strahu	-10.5116
lji	-10.5116
▁celoten	-10.5117
▁pir	-10.5117
▁(19	-10.5118
▁nasvet	-10.512
▁zaprli	-10.5122
▁fotograf	-10.5123
▁ključno	-10.5125
▁poznajo	-10.5128
▁uvrstil	-10.5129
▁cilja	-10.5133
▁reprezentanco	-10.5134
▁cor	-10.5137
▁odnosov	-10.5138
▁novimi	-10.5138
▁vplivajo	-10.5143
▁lansko	-10.5144
▁prestop	-10.5145
▁postavi	-10.5147
mat	-10.5151
▁volivcev	-10.5153
▁izkušnjo	-10.5155
▁poznamo	-10.5156
▁ljubljen	-10.5158
▁forum	-10.5161
▁morebitne	-10.5162
▁rezultatov	-10.5163
▁brata	-10.5166
▁daniel	-10.5172
▁spodbuja	-10.5172
▁zlati	-10.5175
▁sal	-10.5177
▁mlajši	-10.5181
▁območjih	-10.5183
▁študije	-10.5184
▁vsebujejo	-10.5184
lka	-10.5188
▁središče	-10.5193
▁anton	-10.5194
▁sodnika	-10.5196
▁aretirali	-10.5199
don	-10.5205
▁britanska	-10.5206
▁strelec	-10.5207
▁zvon	-10.5208
glas	-10.5216
▁zajtrk	-10.5226
▁čustva	-10.5227
▁vključuje	-10.523
▁delala	-10.5234
▁dvajset	-10.5236
▁poklic	-10.5237
rju	-10.5239
▁postajo	-10.5241
▁padavin	-10.5241
▁ustavili	-10.5242
▁zraku	-10.5242
▁izpad	-10.5244
bija	-10.5248
▁rtv	-10.5249
▁title	-10.5253
▁izstop	-10.5254
▁protest	-10.5255
▁ple	-10.5261
▁met	-10.5263
▁naložbe	-10.5263
▁či	-10.5263
▁we	-10.5265
dom	-10.5267
▁kršitve	-10.5269
▁sledijo	-10.5269
cijo	-10.5269
▁svetuje	-10.527
▁mercedes	-10.527
▁ograjo	-10.5271
▁hrvati	-10.5271
ol	-10.5276
▁stopnje	-10.5278
▁may	-10.5278
▁plačal	-10.5279
▁ras	-10.5287
▁samomor	-10.5291
▁letal	-10.5294
▁vrha	-10.5295
▁nadaljujejo	-10.5297
▁izdal	-10.5298
av	-10.5304
▁listi	-10.5305
▁pogodba	-10.5306
▁poskrbeli	-10.5307
▁stolp	-10.531
▁zbirajo	-10.5312
▁zagotovila	-10.5312
▁davka	-10.5312
▁600	-10.5314
šo	-10.5315
▁tarča	-10.5315
▁dia	-10.5316
star	-10.5317
▁visok	-10.5318
▁sobi	-10.5318
eve	-10.5319
▁pripeljali	-10.5322
▁vetra	-10.5322
▁plan	-10.5327
▁nezakonito	-10.533
▁neuradnih	-10.5333
▁spolno	-10.5334
▁modified	-10.5335
▁nobena	-10.5335
▁boljša	-10.5338
▁slike	-10.5342
▁njegovim	-10.5342
▁izključno	-10.5342
▁stol	-10.5343
fu	-10.5347
▁dalj	-10.5348
▁največkrat	-10.5349
▁odprla	-10.5352
▁nemčijo	-10.5353
▁zakonodajo	-10.5354
▁nepremičnine	-10.536
▁vodstva	-10.5363
▁strokovnjakov	-10.5364
▁prispeval	-10.5365
▁posamezniki	-10.5367
▁prireditev	-10.5369
▁odgovorni	-10.537
▁dobička	-10.5376
▁united	-10.5379
ovem	-10.5381
▁oblak	-10.5382
▁prometna	-10.5382
sed	-10.5382
▁naselju	-10.5384
▁rus	-10.5384
▁besedami	-10.5385
▁straneh	-10.5386
▁skorajda	-10.5388
▁odločen	-10.5389
▁gasilcev	-10.5394
zem	-10.5394
▁področjih	-10.5399
▁preprečiti	-10.5399
▁verjeti	-10.5404
▁britaniji	-10.5406
▁premagala	-10.541
▁chris	-10.541
▁zahodni	-10.5413
▁bre	-10.5414
▁odpadkov	-10.5416
▁doživela	-10.542
▁besedo	-10.542
▁točki	-10.5426
▁zaslon	-10.5427
▁vol	-10.5429
▁srečanja	-10.5429
▁razmerja	-10.543
▁pijan	-10.5432
▁znesek	-10.5435
▁hrvaških	-10.5439
▁ustvaril	-10.544
▁električne	-10.5441
rov	-10.5441
▁naravo	-10.5441
▁plat	-10.5443
▁izgubi	-10.5447
▁zavrača	-10.5447
irali	-10.5448
▁sporočilu	-10.5449
šče	-10.5452
▁predlagala	-10.5454
njo	-10.5455
▁ljub	-10.5458
▁hči	-10.5461
svet	-10.5463
▁can	-10.5463
▁uspešna	-10.5463
irajo	-10.5469
▁mestom	-10.5472
▁pogojev	-10.5473
▁čakal	-10.5474
ds	-10.5475
▁fakultete	-10.5475
▁postopkov	-10.5478
▁obliko	-10.5478
kcij	-10.5484
▁združenja	-10.5486
▁televizije	-10.5488
▁obravnavo	-10.5488
▁izven	-10.5488
vil	-10.5489
▁intenzivno	-10.5501
▁odločilo	-10.5502
▁trdijo	-10.5503
▁?	-10.5505
▁sprejema	-10.5505
▁vložil	-10.5506
▁mc	-10.5509
her	-10.5514
▁največjo	-10.5516
▁mesa	-10.552
▁trgovino	-10.552
hod	-10.5526
▁zagon	-10.5529
▁zvok	-10.5531
▁počne	-10.5532
▁pričakovanja	-10.5532
▁igrala	-10.5533
▁dnevni	-10.5534
▁tečaj	-10.5535
▁priljubljena	-10.5536
▁starejše	-10.5538
▁občin	-10.5541
uk	-10.5541
▁maščob	-10.5541
sh	-10.5541
▁preiskovalci	-10.5543
80	-10.5545
jen	-10.5556
▁vrednote	-10.5561
▁otroki	-10.5566
▁vprašal	-10.5566
▁porabi	-10.5566
▁her	-10.5572
▁prid	-10.5572
▁sodelovala	-10.5574
▁george	-10.5574
▁nekega	-10.5575
▁pogum	-10.5576
▁mednarodnih	-10.5581
ft	-10.5582
▁nosečnosti	-10.5584
▁delamo	-10.559
▁2020	-10.559
▁zgodaj	-10.5592
▁ust	-10.5594
▁predloga	-10.5594
▁proizvodnje	-10.5595
▁glavnih	-10.5596
▁odpravili	-10.5602
▁glasba	-10.5603
▁stavbe	-10.5604
▁podali	-10.5605
▁povečuje	-10.5606
▁gostov	-10.5607
lni	-10.5608
▁rahlo	-10.5608
▁poskušali	-10.5608
▁kitajski	-10.5611
▁incident	-10.5614
▁mnoge	-10.5614
▁nakupu	-10.5619
▁istem	-10.5621
pr	-10.5622
▁osebnost	-10.5623
▁vzela	-10.5627
▁povečala	-10.5631
▁kre	-10.5632
▁družb	-10.5635
▁izkazal	-10.5637
▁francoske	-10.5642
▁vojaki	-10.5644
▁raj	-10.5645
▁zaščiti	-10.5648
▁hoteli	-10.5655
čani	-10.5659
cih	-10.566
▁pomembni	-10.566
▁prepozna	-10.5663
▁organ	-10.5664
▁nadzorni	-10.5667
▁ustrezne	-10.5669
▁log	-10.5671
▁spodnji	-10.5677
▁deklica	-10.5678
vz	-10.5679
▁različnimi	-10.5681
▁proizvodnjo	-10.5683
▁pričakovali	-10.5684
▁razvidno	-10.5685
▁vodje	-10.5685
▁organov	-10.5686
▁pridobili	-10.569
▁gradi	-10.5693
▁harry	-10.5695
▁skušali	-10.5698
▁uporabnike	-10.5699
▁fotografiji	-10.57
▁koalicija	-10.5707
▁pravne	-10.5709
žen	-10.5709
▁vložila	-10.5709
▁odločitvi	-10.5711
▁vrhovno	-10.5712
slov	-10.5715
▁italije	-10.5724
▁tesno	-10.5726
▁tožilstva	-10.5731
▁april	-10.5732
▁slišali	-10.5735
▁ran	-10.5735
▁dejstva	-10.5739
▁janše	-10.5739
▁patria	-10.5742
▁podpredsednik	-10.5744
▁organizira	-10.5745
▁mizo	-10.5746
▁priljubljeni	-10.575
▁turški	-10.5751
▁najvišji	-10.5751
▁kaznivo	-10.5751
▁kamero	-10.5753
cah	-10.5753
▁poslov	-10.5758
▁sogovornik	-10.5759
▁četrt	-10.576
▁desno	-10.5761
▁besedilo	-10.5764
tan	-10.5767
▁teku	-10.5768
▁posla	-10.577
▁športnih	-10.5773
▁bori	-10.5773
▁vesna	-10.5775
▁vselej	-10.5776
▁2005	-10.5776
▁tiče	-10.5777
▁klop	-10.5782
▁boji	-10.5785
▁turizem	-10.5788
▁zavedajo	-10.5788
šči	-10.5788
▁partnerjem	-10.5792
▁primorski	-10.5792
▁start	-10.5794
▁velikim	-10.5795
▁odprti	-10.5796
▁omrežju	-10.5802
▁delovnega	-10.5802
▁dobiček	-10.5803
▁dodajajo	-10.5803
ent	-10.5804
▁stališče	-10.5804
▁zaupa	-10.5804
▁ključnih	-10.5805
▁člen	-10.5806
▁angeles	-10.5806
▁ministri	-10.5807
▁vplivom	-10.5807
▁voditelji	-10.5809
čko	-10.5812
jski	-10.5816
▁drevo	-10.5817
▁stalno	-10.5821
▁parku	-10.5823
▁predstav	-10.5824
▁kod	-10.5827
▁fil	-10.5831
09	-10.5832
▁noče	-10.5837
▁mramor	-10.5841
▁zakonom	-10.5843
▁angel	-10.5851
▁pogoj	-10.5851
hr	-10.5853
▁govorice	-10.5853
▁sha	-10.5854
▁navdih	-10.5855
▁mac	-10.5856
▁starša	-10.5857
▁hoče	-10.5859
▁truplo	-10.5861
▁nujne	-10.5861
▁bistvu	-10.5863
▁seštevku	-10.5863
▁praksi	-10.5864
▁rudar	-10.5865
▁bob	-10.5866
▁načrte	-10.5866
▁minuto	-10.5868
▁rado	-10.5868
par	-10.5875
▁manjših	-10.5875
▁fakulteti	-10.5877
▁drugačno	-10.5878
▁zdravstvu	-10.5879
▁napačno	-10.588
▁dokumentov	-10.5881
▁huawei	-10.5882
san	-10.5886
zni	-10.5888
▁izbral	-10.589
▁funkcijo	-10.5891
▁stekla	-10.5892
kaj	-10.5893
▁roku	-10.5897
▁služb	-10.5897
▁marin	-10.5898
čnik	-10.5902
▁odzive	-10.5902
▁streho	-10.5904
▁posluša	-10.5906
▁tehnologija	-10.5909
▁bal	-10.591
▁1,5	-10.5911
zno	-10.5911
▁intervjuju	-10.5913
▁zabeležili	-10.5915
▁manjša	-10.5916
▁španiji	-10.5916
▁teče	-10.5918
▁začeti	-10.5919
▁govorili	-10.5923
▁svobode	-10.5924
▁financ	-10.5927
▁2004	-10.5927
▁sprejme	-10.5932
▁udeleženci	-10.5937
▁lestvice	-10.5938
▁plačo	-10.5939
ide	-10.5945
▁mili	-10.5945
▁hrvaškega	-10.5945
▁deloval	-10.5946
▁storili	-10.595
▁višja	-10.5951
▁odstopu	-10.5952
▁rusko	-10.5953
▁vzeli	-10.596
▁drevesa	-10.5965
▁govora	-10.597
▁obiskovalcev	-10.597
▁meta	-10.5971
▁kolega	-10.5971
▁aplikacija	-10.5974
▁potekalo	-10.5978
▁celotni	-10.5978
▁američan	-10.598
▁itd	-10.5982
▁podprli	-10.5988
▁30-	-10.5992
▁zemljišč	-10.5994
▁odmev	-10.6
▁podpora	-10.6
▁zahtevala	-10.6
▁časopis	-10.6002
▁spoštovanje	-10.6004
▁prijetno	-10.6005
▁oblačil	-10.6007
▁erdogan	-10.601
▁organizaciji	-10.601
▁lepe	-10.6012
▁umetnosti	-10.6012
▁seksa	-10.6015
45	-10.6015
ben	-10.6015
▁poskrbela	-10.6017
▁vodijo	-10.602
▁tretjega	-10.6022
▁ocenjujejo	-10.6023
12	-10.6024
▁sklopu	-10.6026
▁glavnem	-10.6028
▁pritiska	-10.6029
▁novinarjem	-10.6033
▁velenje	-10.6033
▁protestniki	-10.6034
itve	-10.6034
▁pojasnjujejo	-10.6035
▁reda	-10.6036
▁gradnje	-10.6038
▁niz	-10.6044
▁izveden	-10.6047
▁sla	-10.6054
▁bog	-10.6055
sli	-10.6058
▁mor	-10.606
▁skupne	-10.606
▁avstrijo	-10.6061
▁vašem	-10.6063
bla	-10.6064
▁oblikovanje	-10.6065
▁idejo	-10.6069
▁gremo	-10.607
▁odpoved	-10.6072
▁situacijo	-10.6073
▁narodov	-10.6074
▁nocoj	-10.6075
▁izlet	-10.6078
▁zločin	-10.6079
▁smemo	-10.6081
▁mara	-10.6082
▁interes	-10.6082
▁meril	-10.6082
▁velikosti	-10.6084
▁skrajno	-10.6086
▁koš	-10.6087
▁adria	-10.6087
rk	-10.6088
▁shod	-10.61
erja	-10.61
▁motogp	-10.6101
cije	-10.6103
▁ura	-10.6104
op	-10.6107
▁aktualni	-10.6109
▁poln	-10.611
▁okoliščine	-10.611
▁preprečevanje	-10.611
▁verjetnost	-10.6112
▁imelo	-10.6123
▁odloči	-10.6123
▁velikan	-10.6127
glo	-10.6127
▁milo	-10.6129
▁motorist	-10.613
▁križa	-10.6134
▁nadzorom	-10.6136
▁fanta	-10.6136
▁severu	-10.6136
▁osebne	-10.6138
▁spomenik	-10.6142
▁izvajajo	-10.6144
▁posebna	-10.6145
▁sodelujejo	-10.6146
▁razvija	-10.6147
▁gorici	-10.6149
meri	-10.6152
▁brglez	-10.6155
izacija	-10.6156
▁kopitar	-10.6157
▁uporabili	-10.6159
dej	-10.6161
▁opis	-10.6162
▁obiska	-10.6162
▁svetovna	-10.6164
▁vojaški	-10.6167
▁lorenzo	-10.617
▁chi	-10.6171
▁omenjene	-10.6171
▁postavila	-10.6171
▁mreže	-10.6174
▁izbruhnil	-10.6174
skemu	-10.6177
▁omejitev	-10.6177
▁generalnega	-10.6178
▁knjigi	-10.6179
▁presenetil	-10.6179
@	-10.6182
rom	-10.6182
▁odloča	-10.6184
▁um	-10.6185
▁iskanju	-10.6188
▁najpogosteje	-10.6188
▁pripor	-10.6193
▁dres	-10.6194
▁krepi	-10.6196
▁dars	-10.6203
▁stefan	-10.6204
▁načrtuje	-10.6208
▁julij	-10.6208
▁četrto	-10.6211
▁skupnega	-10.6211
▁izdali	-10.6215
?«	-10.6216
▁petimi	-10.6219
▁mednarodnega	-10.6219
▁mateja	-10.6221
▁filmov	-10.6222
▁govorijo	-10.6223
mes	-10.6224
▁vsebino	-10.6225
▁kamere	-10.6229
▁union	-10.6231
▁čase	-10.6231
▁udaril	-10.6231
▁vanj	-10.6233
▁slabi	-10.6236
▁misel	-10.6237
▁objavo	-10.624
▁stala	-10.6243
▁jugu	-10.6248
▁stavko	-10.6251
▁youtube	-10.6252
▁vozilu	-10.6254
▁postelji	-10.6257
▁državami	-10.6262
▁vožnja	-10.6264
▁dvoma	-10.6264
▁močnejši	-10.6266
▁postopki	-10.6271
▁komisiji	-10.6272
ljivi	-10.6275
▁dim	-10.6277
by	-10.628
▁nož	-10.628
rez	-10.6284
▁ohranja	-10.6285
▁življenjski	-10.629
▁vzhodni	-10.629
▁potniki	-10.6292
joče	-10.6294
raj	-10.6296
▁čoln	-10.6301
▁kvadratnih	-10.6305
▁čudež	-10.6306
▁stanovanju	-10.6306
▁banko	-10.6307
▁har	-10.6309
▁kuhar	-10.6312
▁gost	-10.6314
▁opremljen	-10.6314
aciji	-10.6315
▁uspeha	-10.6315
▁zagorelo	-10.6318
▁poplave	-10.632
▁koroškem	-10.6327
bre	-10.6328
▁enake	-10.6329
▁pomenilo	-10.6331
▁volilni	-10.6334
▁10.000	-10.6334
▁pogosteje	-10.6342
▁mislil	-10.6347
▁odnosi	-10.6348
ovič	-10.6351
▁dvignil	-10.6356
60	-10.6356
▁posnel	-10.6361
nike	-10.6362
▁sobo	-10.6362
▁izvoljen	-10.6367
▁videospot	-10.6367
▁oddelka	-10.6368
▁pričakoval	-10.6368
▁nevarne	-10.6368
▁primerna	-10.6369
▁kdor	-10.637
▁moštva	-10.638
▁kampanjo	-10.6383
▁referendumu	-10.6387
▁potovanje	-10.6388
▁zmogljivosti	-10.639
▁vrati	-10.639
▁elektrike	-10.6391
▁mednarodna	-10.6392
▁delov	-10.6394
▁spozna	-10.6395
▁poročal	-10.64
▁sonce	-10.64
lnik	-10.6402
▁severno	-10.6402
▁ključni	-10.6403
▁televiziji	-10.6405
▁liste	-10.6405
▁specialist	-10.6412
▁zanimiv	-10.6413
▁producent	-10.6413
▁spopada	-10.6419
▁em	-10.6419
▁spremljajo	-10.6424
▁sodba	-10.6424
▁namene	-10.6426
▁kategoriji	-10.6426
▁obvestila	-10.6428
▁mamica	-10.6428
cami	-10.6431
▁vrhunski	-10.6435
voj	-10.6437
▁stadionu	-10.6439
▁protesti	-10.6439
▁strokovnjak	-10.6447
▁počutje	-10.6449
▁navajajo	-10.645
evo	-10.645
▁uživanje	-10.6452
▁reče	-10.6452
▁vašo	-10.6455
▁prenaša	-10.6455
▁ministrov	-10.6455
▁signal	-10.6458
▁miss	-10.6459
▁priznati	-10.646
▁izvajanje	-10.6462
evi	-10.6463
▁težavo	-10.6463
▁nekajkrat	-10.6466
▁nepre	-10.6467
ničar	-10.6467
▁kmet	-10.6469
▁nogometna	-10.6469
▁taka	-10.647
▁finančnega	-10.6471
▁posameznika	-10.6472
sad	-10.6476
▁pušča	-10.6477
▁teka	-10.648
▁barv	-10.6481
▁skakal	-10.6483
▁voditeljica	-10.6485
▁treningu	-10.6485
▁dobesedno	-10.6486
▁življenj	-10.6489
▁podobo	-10.649
lna	-10.6491
▁aktualno	-10.6491
vnega	-10.6492
▁alarm	-10.6493
čar	-10.6493
tor	-10.6503
▁cha	-10.6505
▁streljal	-10.6509
▁enak	-10.6511
▁režim	-10.6512
inja	-10.6516
▁kakšnih	-10.6517
▁800	-10.6517
▁drugje	-10.6519
▁pravno	-10.652
▁tiho	-10.652
▁napadalca	-10.6521
▁meghan	-10.6521
▁hčerko	-10.6522
▁športa	-10.6522
elj	-10.6526
▁širok	-10.6527
▁nafte	-10.6527
▁mat	-10.6528
▁mercatorja	-10.6533
▁znakov	-10.6535
▁četrtletju	-10.6537
▁goste	-10.6537
▁one	-10.6538
▁nizko	-10.6539
▁šp	-10.6542
▁ključ	-10.6542
▁praviloma	-10.6543
▁povezan	-10.6545
▁veljajo	-10.6547
▁polna	-10.6547
▁berlin	-10.6547
▁glava	-10.6551
▁mit	-10.6552
▁prese	-10.6557
lne	-10.6557
▁oblike	-10.6558
▁spleta	-10.6559
▁povečanje	-10.6561
▁izboljšanje	-10.6561
▁predal	-10.6562
▁francije	-10.6566
▁drama	-10.6567
▁rade	-10.6568
▁cilje	-10.6568
▁socialni	-10.6569
▁priporočena	-10.6572
▁poskuša	-10.6572
▁pošte	-10.6573
▁zabavo	-10.6575
jenja	-10.6576
vez	-10.6578
▁spoznali	-10.658
▁arhitekt	-10.658
▁fra	-10.6584
▁grand	-10.6584
▁dravi	-10.6586
▁napredek	-10.6589
▁teže	-10.659
▁25-	-10.6592
▁ponovil	-10.6593
▁omogočajo	-10.6595
▁52	-10.6595
▁začnejo	-10.6599
▁mojca	-10.6602
▁pametne	-10.6605
▁predela	-10.6606
▁kampanje	-10.6608
8,	-10.6611
▁kosov	-10.6613
▁mitja	-10.6617
ron	-10.6618
▁uporabljati	-10.6621
▁vroči	-10.6622
▁william	-10.6623
▁morebitni	-10.6623
▁naravno	-10.6623
▁morale	-10.6623
▁pripoveduje	-10.6627
▁trdo	-10.6628
ard	-10.6629
▁pripraviti	-10.6629
▁cerkev	-10.6631
▁spremenili	-10.6634
▁kolar	-10.6634
▁pritožbo	-10.6636
▁različni	-10.664
▁črne	-10.6641
▁pobegnil	-10.6646
▁sad	-10.6647
▁drugačna	-10.6649
▁nalogo	-10.665
▁savi	-10.6652
pov	-10.6654
▁reši	-10.6658
▁popeljal	-10.6665
▁72	-10.6665
▁maria	-10.6666
▁omenjenih	-10.6667
▁spletna	-10.6668
▁tekmovalci	-10.6668
▁tožilec	-10.6671
▁celjski	-10.6672
▁tujcev	-10.6673
▁predstave	-10.6674
▁koži	-10.6674
eno	-10.6674
▁koren	-10.6675
▁obtožen	-10.6676
▁1:0	-10.6677
▁kal	-10.6678
▁vložili	-10.6687
▁mnogih	-10.6688
▁kitajske	-10.6689
▁vašega	-10.669
▁novinarjev	-10.669
▁komisijo	-10.669
▁odnosu	-10.6691
▁visokih	-10.6691
▁th	-10.6698
▁lepi	-10.6698
jsko	-10.6702
che	-10.6702
▁južno	-10.6703
▁opraviti	-10.6705
▁vpraša	-10.6706
▁rečem	-10.6706
▁miran	-10.6708
▁tekmovanju	-10.6709
line	-10.6709
▁številnimi	-10.6712
▁povprečno	-10.6713
▁potrdilo	-10.6713
▁zemljo	-10.6714
▁študent	-10.6715
▁stališča	-10.6716
▁zdrava	-10.6719
▁letališče	-10.6721
▁avtoceste	-10.6728
▁kategorijo	-10.6729
ljiv	-10.6731
▁situacija	-10.6732
▁naročil	-10.6735
▁neznani	-10.6736
▁nevihte	-10.6738
▁louis	-10.6738
▁modri	-10.674
▁srbije	-10.6742
▁jak	-10.6743
▁noben	-10.6744
žne	-10.6746
jenje	-10.6747
▁potreboval	-10.6754
▁brani	-10.6756
▁jasna	-10.676
oval	-10.6762
▁oskrbo	-10.6762
▁litrov	-10.6762
▁klemenčič	-10.6763
▁predstava	-10.6765
rič	-10.6766
istično	-10.6766
rske	-10.6766
▁zadetek	-10.6767
▁napravo	-10.6768
▁kalorij	-10.6768
▁huda	-10.6769
▁voznikov	-10.6769
▁grozil	-10.6772
▁grčiji	-10.6772
▁naravnost	-10.6774
▁prebivalstva	-10.6774
▁samozavest	-10.6774
▁odstranili	-10.6775
▁odhaja	-10.6779
▁obtožbe	-10.6782
▁stil	-10.6783
▁mobilnik	-10.6788
▁lip	-10.6789
▁festivalu	-10.6789
▁tekmoval	-10.6789
▁es	-10.679
▁bled	-10.6791
nde	-10.6792
▁umrli	-10.6793
ani	-10.6793
▁izgube	-10.6794
▁ljubljančan	-10.6796
▁odkup	-10.6796
nikom	-10.6796
▁kun	-10.6798
▁izpit	-10.68
▁maraton	-10.6802
▁vstopa	-10.6804
▁rit	-10.6808
▁samem	-10.6809
▁nagrada	-10.6816
▁iskreno	-10.6817
▁delovnem	-10.6819
▁zanimivosti	-10.682
▁obsega	-10.6823
dre	-10.6823
lova	-10.6825
▁odprto	-10.6826
▁stavka	-10.6828
▁47	-10.683
▁švicar	-10.6833
▁tovrstnih	-10.6834
▁sestre	-10.6836
▁agent	-10.6837
▁konflikt	-10.6838
▁sprejet	-10.684
▁križ	-10.6841
▁kongres	-10.6843
▁napadel	-10.6845
▁barceloni	-10.6848
▁preprečili	-10.6849
▁izgubo	-10.6849
sp	-10.6851
▁domžale	-10.6851
▁viri	-10.6852
▁sindikatov	-10.6852
▁raziskovalci	-10.6853
▁64	-10.6856
▁barcelone	-10.6857
▁določeno	-10.6859
▁italija	-10.6861
nor	-10.6864
▁ograje	-10.6865
rije	-10.6865
mišljen	-10.6868
▁pojavlja	-10.6869
▁bmw	-10.6876
▁williams	-10.6876
▁bencin	-10.6878
▁neposredni	-10.688
▁presega	-10.6881
▁nadaljnje	-10.6882
▁procesor	-10.6882
▁ad	-10.6882
▁leži	-10.6883
▁urednik	-10.6885
▁turčiji	-10.6886
▁avtomobili	-10.6887
▁burja	-10.6889
▁hotelu	-10.689
▁mislijo	-10.689
▁komisar	-10.6891
tika	-10.6892
▁85	-10.6892
▁stavke	-10.6892
▁posodobljeno	-10.6893
▁serija	-10.6896
▁zaposlene	-10.6901
▁naročnik	-10.6902
▁današnje	-10.6903
▁postati	-10.6904
▁čiščenje	-10.6904
▁zdrave	-10.6905
▁cerk	-10.6905
▁jezika	-10.6907
▁razplet	-10.6909
▁tujino	-10.6909
▁plačila	-10.691
▁poročil	-10.6911
▁upošteva	-10.6913
▁sredini	-10.6913
krit	-10.6914
▁robot	-10.6915
▁povzročila	-10.6916
▁kupiti	-10.6916
▁slišal	-10.6918
▁odpravlja	-10.6918
nija	-10.6918
▁ukaz	-10.692
ljivo	-10.6921
▁postopke	-10.6922
▁življenjsko	-10.6922
▁raste	-10.6923
▁zanika	-10.6925
▁cerkvi	-10.6929
kić	-10.6932
▁vpis	-10.6933
▁ogroža	-10.6934
odstotna	-10.6935
▁brad	-10.6937
▁finančna	-10.6939
▁načel	-10.6941
▁vrnitev	-10.6942
▁gora	-10.6944
▁nenavadno	-10.6946
▁blago	-10.6946
fra	-10.6947
▁košarkarji	-10.6951
▁primeren	-10.6954
▁sodelavci	-10.6956
▁izraz	-10.6958
▁razkrili	-10.696
▁operacijski	-10.6963
▁slovenj	-10.6964
▁višine	-10.6964
(	-10.6966
▁vsake	-10.697
▁darilo	-10.6973
▁izredni	-10.6974
▁mater	-10.6976
▁opisal	-10.6976
▁vzdušje	-10.6978
▁zmanjšanje	-10.6982
▁mah	-10.6989
▁anja	-10.6989
▁šefa	-10.6995
▁kazal	-10.6999
▁prevzema	-10.7
▁srednji	-10.7002
▁pari	-10.7002
▁nagrajen	-10.7006
▁junak	-10.7006
chi	-10.7007
▁hitrostjo	-10.7009
▁zmag	-10.701
▁islamske	-10.7012
▁pozabite	-10.7013
▁javna	-10.7017
▁tira	-10.7017
▁dele	-10.702
▁andrea	-10.702
▁prizna	-10.7021
▁polja	-10.7021
▁izkoristil	-10.7022
▁vele	-10.7024
▁legendarni	-10.7024
▁podpirajo	-10.7025
ld	-10.7025
▁udeležil	-10.7027
▁09	-10.7027
▁obtožb	-10.7027
▁jutro	-10.7032
rti	-10.7033
ls	-10.7033
▁sinoči	-10.7036
▁spomladi	-10.7037
▁bolniki	-10.7037
▁sindikat	-10.7038
tnik	-10.7039
▁končali	-10.7041
čih	-10.7042
▁100.000	-10.7043
▁paul	-10.7046
▁amerike	-10.7047
▁pretok	-10.7048
▁delih	-10.7049
▁izbiro	-10.705
▁črpa	-10.705
▁boljšo	-10.705
▁odziva	-10.7053
▁takole	-10.7054
▁ocene	-10.7056
▁neznan	-10.7057
▁navdušil	-10.706
▁jutranje	-10.7061
kovič	-10.7062
nović	-10.7062
▁vreden	-10.7065
▁nudi	-10.7065
▁odpravil	-10.7067
▁kovač	-10.7069
▁poveljnik	-10.7069
▁ča	-10.7071
▁organizacijo	-10.7073
glav	-10.7076
▁servis	-10.7077
▁odšla	-10.7077
▁sprememba	-10.708
▁širše	-10.7083
▁igrajo	-10.7083
▁krajev	-10.7083
▁hip	-10.7084
▁trgih	-10.7089
▁sistemom	-10.7094
žno	-10.7097
▁derbi	-10.7097
▁elektro	-10.7098
▁štuhec	-10.7099
▁macron	-10.7099
▁notranjosti	-10.7103
▁mleko	-10.7103
▁maščobe	-10.7104
▁zvezni	-10.7106
▁preneha	-10.7108
▁dolini	-10.7108
▁dvanajst	-10.7109
▁poročilu	-10.711
▁kulturni	-10.711
▁horvat	-10.7111
ril	-10.7113
▁svetujejo	-10.7113
▁poudarili	-10.7116
▁naredite	-10.7116
▁okoliščin	-10.7123
▁brother	-10.7125
▁komentar	-10.7125
▁njima	-10.7127
▁politična	-10.7128
▁premierka	-10.7128
▁senat	-10.7136
▁mišic	-10.7139
▁celotne	-10.714
▁glasovanje	-10.7141
▁pozno	-10.7142
▁rod	-10.7143
▁bojijo	-10.7146
▁zemlje	-10.7147
▁britanija	-10.7147
▁jesen	-10.7148
▁čistil	-10.7149
kli	-10.715
▁prodali	-10.7151
▁pravega	-10.7151
▁razpisa	-10.7154
▁termin	-10.7156
vp	-10.7157
▁domačega	-10.716
▁pojavila	-10.7162
▁cm	-10.7163
▁olimpijski	-10.7167
▁metod	-10.7172
▁zlahka	-10.7172
▁turnir	-10.7172
▁poklical	-10.7173
▁angleški	-10.7174
dy	-10.7177
▁odstotek	-10.7179
▁objekta	-10.718
▁preostali	-10.7182
▁sav	-10.7184
▁preživeli	-10.7187
▁uspela	-10.7187
▁zavodu	-10.7187
▁podobna	-10.7188
▁2.0	-10.7189
▁očitke	-10.719
▁kratek	-10.7193
rab	-10.7197
▁konference	-10.7197
▁kraje	-10.72
▁jose	-10.7203
▁slavil	-10.7207
▁sls	-10.7207
▁znašala	-10.7209
▁zaposlitve	-10.7214
▁kupci	-10.7224
▁pokazati	-10.7224
▁univerzi	-10.7225
▁trgov	-10.7225
reč	-10.7227
▁aleksander	-10.7233
▁pomembnih	-10.7234
▁izkušnja	-10.7235
▁najlepše	-10.7237
▁51	-10.7238
▁povezanih	-10.724
igra	-10.724
▁odpravila	-10.7242
▁zdravstvo	-10.7242
▁slog	-10.7246
▁bud	-10.7247
▁zahodu	-10.7248
▁lanskem	-10.7248
▁opazil	-10.7249
▁odslej	-10.725
▁dallas	-10.7254
▁vzpon	-10.7256
▁temo	-10.7256
▁izjavil	-10.7257
vić	-10.7259
▁podaja	-10.726
maj	-10.726
▁nataša	-10.7261
tnih	-10.7264
tako	-10.7266
▁jeziku	-10.7268
▁jean	-10.7272
▁družin	-10.7272
▁operacije	-10.7274
▁sektor	-10.7275
▁objektiv	-10.7275
▁osnovno	-10.7275
▁peto	-10.7275
▁izredne	-10.7275
▁krizi	-10.7276
▁der	-10.7276
▁pade	-10.728
▁janši	-10.7282
▁znašla	-10.7285
▁kraljica	-10.7286
▁relativno	-10.7288
▁zbralo	-10.7288
rjem	-10.7288
▁izdaja	-10.7289
▁uporabnik	-10.729
▁av	-10.7292
▁sklic	-10.7292
▁serijo	-10.7293
▁padlo	-10.7295
▁nekem	-10.7304
kin	-10.7304
▁mere	-10.7304
▁sestanku	-10.7305
▁gledal	-10.7311
▁starše	-10.7312
▁god	-10.7315
▁poškodovana	-10.7315
gna	-10.7317
▁lastnih	-10.7317
▁ustreza	-10.7318
▁stre	-10.7319
▁obseg	-10.732
▁56	-10.732
▁izračun	-10.7321
▁zavarovan	-10.7328
▁vsemu	-10.733
▁končalo	-10.733
▁omenja	-10.733
▁tistimi	-10.7335
▁splet	-10.7335
▁povezano	-10.7338
▁porazu	-10.7338
▁malih	-10.7338
▁jasen	-10.7339
▁skočil	-10.7339
▁namenili	-10.734
▁alp	-10.734
▁davek	-10.7342
alne	-10.7342
▁izda	-10.7343
▁pozivajo	-10.7347
▁(1	-10.7348
▁sestavine	-10.7348
stjo	-10.7351
▁bogati	-10.7353
▁glavnega	-10.7353
▁kolesa	-10.7356
▁chelsea	-10.7357
▁povzročajo	-10.7357
▁oprema	-10.7357
▁glasbeno	-10.7358
ljub	-10.7363
▁nemec	-10.7363
▁američani	-10.7365
▁živila	-10.7366
▁prireditve	-10.7367
▁deklet	-10.7368
▁nogo	-10.7373
▁srbijo	-10.7375
▁vest	-10.7376
led	-10.7378
▁filmski	-10.7378
▁ruska	-10.7381
▁tradicionalno	-10.7382
▁ros	-10.7383
jejo	-10.7383
▁ig	-10.7383
99	-10.7393
▁šolah	-10.7394
▁priljubljene	-10.7399
▁ilka	-10.7399
▁okrožno	-10.74
▁premoč	-10.7404
▁osnovnih	-10.7404
▁glasbene	-10.7409
pis	-10.7409
lcev	-10.741
▁poročala	-10.7413
▁turnirja	-10.7413
▁napadih	-10.7415
alna	-10.7416
zor	-10.7417
▁rakom	-10.7418
▁policijsko	-10.7419
▁gozd	-10.7423
▁izobraževanja	-10.7424
▁uvrstila	-10.7425
▁suho	-10.7425
ban	-10.743
▁nika	-10.743
kt	-10.7432
▁zgled	-10.7435
▁zgodovine	-10.7437
▁slogu	-10.7437
▁obiskala	-10.7437
▁nemško	-10.7438
▁žil	-10.7439
▁prepovedi	-10.7441
▁nanaša	-10.7446
▁euro	-10.7446
▁uvoz	-10.7447
▁navadno	-10.7452
▁srčni	-10.7454
▁kop	-10.7458
kra	-10.7461
▁nižji	-10.7467
▁krim	-10.7469
▁oblikoval	-10.7471
▁devetih	-10.7471
▁trudi	-10.7473
▁mon	-10.7474
▁stavb	-10.7475
▁člane	-10.7476
▁1,2	-10.7477
vsak	-10.7479
▁programov	-10.7479
▁omenjeno	-10.7481
▁mojega	-10.7483
▁pripadniki	-10.7483
▁najem	-10.7484
▁dogovorili	-10.7487
žal	-10.7488
▁močne	-10.749
▁helikopter	-10.749
▁skuša	-10.7491
▁slednje	-10.7491
▁komentiral	-10.7491
dni	-10.7491
▁53	-10.7491
▁zasebni	-10.7492
▁povezavo	-10.7492
▁pohvalil	-10.7498
▁popoln	-10.7498
▁fitnes	-10.7504
▁srcu	-10.7505
▁ukrajinske	-10.7505
▁ger	-10.7505
▁eks	-10.7507
▁srbske	-10.751
▁zakonodaja	-10.751
▁bela	-10.7511
▁‘	-10.7512
njih	-10.7516
▁kamen	-10.7516
▁druži	-10.7519
▁poletja	-10.7519
▁manekenka	-10.752
▁tok	-10.7526
▁66	-10.7526
▁projekte	-10.7527
ser	-10.7534
▁dunaj	-10.7535
▁janšo	-10.7536
▁zanikal	-10.7536
▁posega	-10.7541
▁sprožila	-10.7542
▁otroške	-10.7545
▁veš	-10.7548
▁sprašuje	-10.7549
▁sankcij	-10.7552
▁ban	-10.7552
▁poroko	-10.7556
▁odhodu	-10.7556
▁aparat	-10.7557
▁cr	-10.7559
▁ugotavljajo	-10.7559
▁sedel	-10.7561
▁vseskozi	-10.7567
▁imenoval	-10.7567
▁obramba	-10.7569
▁knjig	-10.7569
▁zaupanja	-10.7569
tvami	-10.7569
gro	-10.757
▁spregovoril	-10.757
tič	-10.7573
▁madžarska	-10.7575
▁mizi	-10.7576
bili	-10.7579
▁jani	-10.7581
▁barbara	-10.7581
▁bazen	-10.7586
▁zameno	-10.7588
▁poslu	-10.7589
▁napovedih	-10.7591
▁požaru	-10.7592
▁slabega	-10.7594
▁vloga	-10.7595
▁usmerja	-10.7597
▁ustvarila	-10.7598
▁grčija	-10.7598
▁zaposlitev	-10.7599
▁podobni	-10.7599
▁časih	-10.7601
▁zanesljivo	-10.7604
▁okras	-10.7607
▁psi	-10.7609
▁mano	-10.761
sek	-10.761
▁avt	-10.7613
▁vabi	-10.7615
reči	-10.762
lci	-10.7621
▁mogoč	-10.7622
▁zabave	-10.7623
▁hrvat	-10.7624
▁ii	-10.7625
▁ustrelil	-10.7625
▁57	-10.7626
▁polfinalu	-10.7628
▁49	-10.7628
▁agenciji	-10.7635
▁pošilja	-10.7636
▁sredstvi	-10.7639
▁naravni	-10.7641
▁gole	-10.7641
▁primere	-10.7642
▁ravnanja	-10.7642
▁potreben	-10.7643
▁televizijo	-10.7647
▁mariborske	-10.7647
▁martina	-10.7649
▁podatek	-10.7649
▁progi	-10.765
▁bran	-10.7653
stavlja	-10.7653
▁mejni	-10.7655
▁jennifer	-10.7661
▁zgornji	-10.7663
▁opa	-10.7663
▁mobilnega	-10.7667
▁izbrala	-10.7669
▁pristojne	-10.767
čkom	-10.7671
▁sirije	-10.7672
▁izhod	-10.7674
▁pariz	-10.7678
niku	-10.7678
▁smejo	-10.7679
čić	-10.7679
▁povečal	-10.7679
▁zapustiti	-10.7682
▁ustavnega	-10.7684
▁pisatelj	-10.7689
▁pobeg	-10.769
▁dogodke	-10.7693
▁zanimanje	-10.7697
▁kat	-10.77
▁dobe	-10.7701
▁nastopi	-10.7705
▁žival	-10.7705
vanju	-10.7705
▁tisoče	-10.7705
▁spremljajte	-10.7707
▁poskrbeti	-10.7707
čem	-10.7708
▁ozadju	-10.7711
▁max	-10.7715
lno	-10.7717
▁razum	-10.7717
▁spo	-10.7719
▁ponavadi	-10.7719
▁katarina	-10.7722
▁pozimi	-10.7723
▁najdete	-10.7724
▁upoštevati	-10.7726
▁far	-10.7726
▁frank	-10.7727
▁zid	-10.773
vk	-10.7733
▁vojaško	-10.7736
▁zbornice	-10.7738
▁svobodo	-10.7738
▁našim	-10.7738
▁lik	-10.774
logi	-10.774
▁rož	-10.774
▁2:0	-10.7741
▁obveščeni	-10.7742
35	-10.7743
▁zimske	-10.7744
und	-10.7745
▁oblika	-10.7747
▁nanjo	-10.7747
▁drugačne	-10.7749
▁obtoženi	-10.7752
▁holding	-10.7757
▁odigral	-10.7757
▁vin	-10.7761
▁08	-10.7761
▁družbeno	-10.7762
▁lokalno	-10.7769
▁usta	-10.777
▁mari	-10.7772
▁sodnikov	-10.7778
▁omar	-10.7778
▁pojasni	-10.7778
▁pregleda	-10.7778
▁udeležencev	-10.778
▁gumb	-10.7781
▁kučan	-10.7781
▁storila	-10.7781
tega	-10.7782
šić	-10.7783
▁obema	-10.7784
lic	-10.7785
zijo	-10.7786
▁nivo	-10.7787
▁pogovore	-10.7788
▁pristojni	-10.7788
▁vojaške	-10.7788
▁predstavitvi	-10.779
▁hudi	-10.779
▁shared	-10.7792
▁najhitrejši	-10.7795
vsi	-10.7796
▁zavarovanja	-10.78
▁moreš	-10.7801
▁načine	-10.7802
▁zboru	-10.7804
▁uporabljali	-10.7808
▁jana	-10.7811
čila	-10.7813
▁določen	-10.7814
que	-10.7815
▁seje	-10.7815
▁nastopu	-10.7815
▁redni	-10.7819
tje	-10.7819
▁vnosa	-10.7821
▁liverpool	-10.7823
▁koža	-10.7825
▁vrhovnega	-10.7825
▁donalda	-10.7832
▁razumeti	-10.7834
▁sadje	-10.7836
▁nogometa	-10.7837
▁merkel	-10.784
▁socialnih	-10.7845
▁šampion	-10.7846
▁vlomil	-10.7847
▁postaviti	-10.7849
oz	-10.7852
ula	-10.7853
▁nemci	-10.7853
ble	-10.7853
vra	-10.7859
▁ukradel	-10.7861
▁sodobne	-10.7864
dijo	-10.7865
dal	-10.7865
▁smisel	-10.7866
▁investicije	-10.7868
▁kapitala	-10.787
▁olimpijske	-10.7871
▁kazenski	-10.7871
▁negativno	-10.7872
▁kardashian	-10.7877
▁krivdo	-10.7878
▁zapustila	-10.7878
▁živimo	-10.7879
▁zastopa	-10.7879
nili	-10.7879
tz	-10.7884
▁presenetila	-10.7884
▁kitajsko	-10.7886
▁oto	-10.7887
▁tovrstne	-10.7887
▁šesti	-10.7891
▁okužbe	-10.7897
▁letalu	-10.7898
▁dosega	-10.7905
▁dvomi	-10.7905
▁preživi	-10.7908
▁kovačič	-10.7909
▁strehe	-10.7909
▁cas	-10.7911
▁preživlja	-10.7911
▁sproži	-10.7913
▁pla	-10.7915
▁rek	-10.7915
šnji	-10.792
kor	-10.7923
▁nogometnega	-10.7924
▁ustanovitelj	-10.7924
▁utrpel	-10.7924
▁znanost	-10.7925
▁zmeraj	-10.7925
▁pridobiti	-10.7928
▁obljubil	-10.7928
▁dolge	-10.7929
▁vnuk	-10.7931
▁prestolnice	-10.7932
▁ostanejo	-10.7934
sle	-10.7934
▁pogovarjali	-10.7937
▁prihodki	-10.7942
▁obdobja	-10.7943
▁slovenka	-10.7943
▁posnetki	-10.7947
▁3000	-10.7952
▁količina	-10.7953
nejša	-10.7954
▁izogniti	-10.7956
▁pravica	-10.7956
▁električni	-10.796
elo	-10.7962
▁srečal	-10.7964
▁denarjem	-10.7964
▁61	-10.7965
▁*	-10.7967
▁ujel	-10.7969
▁nemškega	-10.7973
▁inštitut	-10.7974
▁letališča	-10.7976
▁opravljajo	-10.7979
▁kritike	-10.7981
▁vodstvu	-10.7982
▁beseda	-10.7984
▁verjeli	-10.7985
▁gradu	-10.7986
▁zastoji	-10.7987
▁pravni	-10.799
▁telekoma	-10.7992
▁mesečno	-10.7992
nskih	-10.7993
▁predstavnikov	-10.8001
zer	-10.8001
njak	-10.8001
▁avstrije	-10.8002
▁šar	-10.8004
▁dob	-10.8004
▁zanimiva	-10.8005
sov	-10.8006
▁omogočil	-10.8008
ny	-10.8009
▁dialog	-10.8012
▁slalom	-10.8012
▁oboževalci	-10.8013
▁žiga	-10.8014
▁odvzeli	-10.8015
▁zmore	-10.8022
▁neka	-10.8024
▁zavrnili	-10.8024
25	-10.8025
▁sol	-10.8028
▁večjega	-10.8032
▁pek	-10.8032
dov	-10.8033
▁nacionalnega	-10.8034
▁poljub	-10.8034
▁staršem	-10.8034
▁podobnih	-10.8036
sol	-10.8036
▁reka	-10.8036
gon	-10.8037
▁povezuje	-10.8039
▁prahu	-10.804
sch	-10.8041
▁grožnje	-10.8043
▁kritik	-10.8045
▁pripravljenost	-10.8046
▁rim	-10.8048
▁koder	-10.8051
▁sedmi	-10.8052
pl	-10.8053
▁učinke	-10.8054
rta	-10.8056
▁mišič	-10.8056
▁she	-10.8058
▁doživlja	-10.806
70	-10.806
▁orodje	-10.8063
▁globus	-10.8064
▁točka	-10.8067
▁pretirano	-10.8067
▁zahod	-10.8069
▁enot	-10.807
▁tretjo	-10.807
▁izgleda	-10.8071
▁storilec	-10.8072
▁povabil	-10.8073
pek	-10.8076
▁najvišjo	-10.8079
▁sankcije	-10.8079
▁sodelovati	-10.8081
▁francozi	-10.8082
▁letalske	-10.8082
▁mega	-10.8083
▁stadion	-10.8084
▁lokal	-10.809
▁višjo	-10.809
ü	-10.809
▁sila	-10.8091
▁zelenjave	-10.8091
▁majhne	-10.8092
▁generacija	-10.8093
▁ir	-10.8095
▁prodal	-10.8098
▁davčnih	-10.81
▁pretekli	-10.8101
▁presenetljivo	-10.8101
telj	-10.8101
▁navdušeni	-10.8102
▁ut	-10.8105
▁turistov	-10.8107
▁sab	-10.8107
▁skok	-10.8108
▁meseci	-10.811
▁spolne	-10.8111
▁krivde	-10.8112
▁zapisano	-10.8115
lnih	-10.8123
▁iti	-10.8129
▁dodatna	-10.8129
▁odšteti	-10.8129
eta	-10.8131
▁kvalifikacije	-10.8132
▁54	-10.8132
the	-10.8134
▁marija	-10.8137
▁povprečna	-10.8137
▁sredine	-10.8138
ljena	-10.8139
▁nadzornega	-10.8143
▁gorenjski	-10.8147
▁imele	-10.8147
▁varuh	-10.8152
tes	-10.8152
▁mojih	-10.8156
▁pričakovano	-10.8156
▁odpor	-10.8157
▁portala	-10.8158
▁dokazal	-10.8162
▁karton	-10.8165
▁kosilo	-10.8166
tična	-10.8166
▁priporu	-10.8171
▁mojo	-10.8172
istične	-10.8174
lić	-10.8176
▁avtobusi	-10.8177
▁učitelj	-10.8177
▁ugotovitve	-10.8178
12.	-10.8178
▁zaupal	-10.8179
▁osumljenca	-10.8181
▁lanski	-10.8184
▁telefoni	-10.8185
▁zadovoljna	-10.8185
▁predstavitev	-10.8185
▁skrbno	-10.8186
▁možem	-10.8186
▁rabi	-10.8188
▁air	-10.819
tvah	-10.819
▁služi	-10.8192
▁liter	-10.8193
▁il	-10.8193
▁jorge	-10.8196
mislim	-10.8196
zija	-10.8197
▁smeti	-10.8198
▁poslovil	-10.82
▁ponudili	-10.8201
▁čakali	-10.8205
▁dosti	-10.8205
▁vesela	-10.8207
▁posebnih	-10.8207
▁vratarja	-10.8208
▁potovanja	-10.8208
▁preverili	-10.821
mor	-10.8211
▁kongresu	-10.8211
▁slavi	-10.8211
ičnih	-10.8213
▁državljane	-10.8213
▁prinese	-10.8215
▁menedžer	-10.8215
▁ranjen	-10.8215
▁meter	-10.8217
▁olajša	-10.8218
▁darko	-10.8218
▁srbija	-10.822
▁vstopil	-10.822
▁soglasje	-10.8221
▁gospodar	-10.8222
ele	-10.8223
▁posle	-10.8225
▁kakšnega	-10.8225
▁dokazuje	-10.8226
▁kamera	-10.8227
▁clinton	-10.823
▁bas	-10.8231
▁avtomobilu	-10.8233
▁posojila	-10.8233
▁financiranje	-10.8235
▁domačini	-10.8237
▁investicij	-10.8237
▁prebivalce	-10.8238
▁teš	-10.824
▁kavo	-10.8244
▁pozvala	-10.8245
▁đoković	-10.8245
▁stožicah	-10.8246
▁odgovorila	-10.8246
▁pogovorov	-10.825
▁bayern	-10.8252
▁britanije	-10.8253
▁odvisna	-10.8254
▁tamkajšnji	-10.8256
▁težavami	-10.8256
▁pokazale	-10.8257
▁kazenskega	-10.8258
▁dolžnosti	-10.826
▁občino	-10.8262
▁december	-10.8262
▁poslovnež	-10.8263
▁ustvarili	-10.8265
▁kranjski	-10.8269
06	-10.827
▁madžarski	-10.8273
▁ciljev	-10.8273
▁mladim	-10.8275
▁stopila	-10.8278
▁tretjini	-10.828
▁udarec	-10.8283
▁prvaki	-10.8284
▁kor	-10.8284
▁površin	-10.8285
všek	-10.8288
▁kevin	-10.8289
▁id	-10.8289
niška	-10.829
▁ovadbo	-10.829
▁melania	-10.829
08	-10.8291
▁preteklost	-10.8291
mal	-10.8292
▁pripravite	-10.8293
▁mejnih	-10.8294
▁podrl	-10.8296
▁arso	-10.8297
▁migrante	-10.8297
▁srečni	-10.8297
▁vojsko	-10.8297
rica	-10.8298
▁zmanjšuje	-10.83
▁prepo	-10.8301
▁naenkrat	-10.8304
▁nizke	-10.8304
uš	-10.8305
vala	-10.8308
špa	-10.8312
▁zagovornik	-10.8312
▁700	-10.8317
▁prosil	-10.8318
▁tole	-10.8323
▁sadja	-10.8324
▁določeni	-10.833
▁brexit	-10.8331
▁težke	-10.8332
ncev	-10.8332
▁63	-10.8334
▁vrhunec	-10.8337
*	-10.8337
▁zaupala	-10.8339
▁nameravajo	-10.8339
▁davkov	-10.834
▁taki	-10.8341
▁drugemu	-10.8343
▁mostu	-10.8343
ljiva	-10.8344
▁pripada	-10.8346
žil	-10.8347
▁zaključku	-10.8356
▁severne	-10.8356
▁milijoni	-10.8357
ovski	-10.8357
▁branje	-10.8358
▁izpostavila	-10.8361
▁orkan	-10.8365
shi	-10.8367
▁hamilton	-10.837
▁trajala	-10.8372
rno	-10.8372
▁možganov	-10.8372
ö	-10.8374
▁odnosih	-10.8374
▁proge	-10.8375
▁diplom	-10.8379
▁negativne	-10.838
strel	-10.838
▁odredil	-10.8382
▁zavrnila	-10.8382
▁odpravi	-10.8384
▁situacije	-10.8385
slu	-10.8385
▁zaporno	-10.8388
zdrav	-10.8388
▁psov	-10.839
jena	-10.8393
▁humor	-10.8396
▁vaših	-10.8398
▁fak	-10.8399
klo	-10.8399
▁strela	-10.84
▁kle	-10.84
▁financiranja	-10.8406
▁teroristični	-10.8407
▁tekom	-10.8409
▁simona	-10.8409
▁cez	-10.841
▁67	-10.841
čevi	-10.8411
▁potek	-10.8412
vla	-10.8414
rc	-10.8415
▁poškodovani	-10.8416
▁govorila	-10.8416
žu	-10.8417
▁uvedbo	-10.8417
▁doktor	-10.8417
▁doživeli	-10.842
▁pohvali	-10.842
mrz	-10.8422
eja	-10.8423
▁smrtnih	-10.8423
▁dobo	-10.8425
▁dolgoletni	-10.8426
vit	-10.8426
▁sosed	-10.8428
▁viktor	-10.8429
▁poskrbi	-10.843
▁špela	-10.843
▁dobrim	-10.843
▁elektronske	-10.843
▁energija	-10.8434
▁marka	-10.8435
▁pogreb	-10.8437
▁aktualne	-10.8438
▁preobrat	-10.8443
▁rastline	-10.8445
▁odškodnine	-10.8445
▁prizadeva	-10.8446
▁načrta	-10.8447
▁zaslužil	-10.8447
sil	-10.845
▁vzeti	-10.8452
▁sestanek	-10.8452
▁smučarske	-10.8452
▁gašper	-10.8458
▁skokov	-10.8458
▁vzame	-10.846
▁reprezentanci	-10.846
▁barva	-10.8461
▁hodi	-10.8467
▁vadbo	-10.8468
▁izjemen	-10.8468
▁izvršni	-10.8469
▁veleslalom	-10.8469
▁živela	-10.8471
gradi	-10.8474
▁omrežje	-10.8475
▁vitamin	-10.8477
leti	-10.8478
▁celi	-10.8478
rat	-10.8478
▁prenese	-10.8482
▁odzvali	-10.8483
▁sistemov	-10.8484
▁ključna	-10.8486
▁obnovo	-10.8487
▁preprost	-10.8488
▁nasmeh	-10.849
▁nacionalno	-10.8492
▁npr	-10.8496
▁obrambi	-10.8501
▁photo	-10.8503
▁policistom	-10.8503
čiti	-10.8506
▁kaznovan	-10.8507
▁majhna	-10.8507
▁znamenju	-10.8509
▁ladje	-10.8509
▁pismu	-10.851
▁hčerka	-10.8512
56	-10.8512
▁odločali	-10.8512
▁odnesel	-10.8513
ljeni	-10.8513
▁razlogi	-10.8513
▁vonj	-10.8517
▁prizorišče	-10.8517
▁dokumente	-10.8518
▁zbira	-10.8519
▁gospodarska	-10.852
▁dolgoročno	-10.8521
▁prijavo	-10.8521
▁mode	-10.8522
▁produkt	-10.8522
▁mlado	-10.8523
fin	-10.8537
▁sram	-10.8539
▁stanovanjske	-10.8541
▁reviji	-10.8542
▁praznuje	-10.8542
▁očmi	-10.8544
▁prsi	-10.8545
▁hiter	-10.8545
▁uničen	-10.8546
▁neodvisnosti	-10.8547
dor	-10.8547
berg	-10.8549
▁desetletja	-10.855
▁zvezdnika	-10.8551
▁24-	-10.8552
▁odprtih	-10.8552
▁akt	-10.8553
▁pomanjkanja	-10.8557
▁izvedla	-10.8558
▁kupili	-10.856
▁tipa	-10.8561
▁poškodovala	-10.8562
▁podjetnik	-10.8563
▁mariborčan	-10.8566
▁številna	-10.8567
▁levica	-10.8568
▁ddv	-10.8569
▁sončno	-10.8569
▁modne	-10.8569
▁leon	-10.857
▁trajalo	-10.8572
▁nase	-10.8572
arno	-10.8578
dite	-10.8582
▁mikro	-10.8583
rob	-10.8583
▁grški	-10.8583
▁18-	-10.8583
▁osebna	-10.8585
▁varne	-10.8585
▁avtomobilom	-10.8585
▁ulica	-10.8586
▁bogato	-10.8591
sem	-10.8592
db	-10.8595
▁aba	-10.8599
▁revija	-10.8599
▁aktivnost	-10.8603
▁posameznik	-10.8605
▁igralcem	-10.8605
▁posted	-10.8611
▁osvojili	-10.8611
▁prebil	-10.8615
čeve	-10.8615
žo	-10.8615
ram	-10.8617
▁turčija	-10.862
▁izboru	-10.8626
▁rojak	-10.8626
▁reala	-10.863
▁pustila	-10.863
▁trgovin	-10.8631
isti	-10.8631
▁dežja	-10.8633
▁ločljivosti	-10.8634
▁zdravilo	-10.8635
07	-10.8635
▁barvi	-10.8635
▁miami	-10.8636
▁plačali	-10.8636
rb	-10.8637
▁ponudila	-10.8638
▁nabor	-10.8638
▁mejnem	-10.864
▁kek	-10.8641
bol	-10.8643
▁zaprla	-10.8646
▁tabor	-10.8647
▁prostost	-10.8648
▁televizija	-10.8648
▁kranjec	-10.8648
▁nožem	-10.8649
▁zagotavljajo	-10.8653
▁gostil	-10.8655
▁pisanju	-10.8657
▁špa	-10.8658
▁sveti	-10.8658
▁glavne	-10.8659
zne	-10.8659
▁art	-10.866
▁posnetku	-10.8665
▁uvaja	-10.8665
▁tisočakov	-10.8666
▁resnica	-10.8669
▁ubitih	-10.8671
▁marsikdo	-10.8672
blo	-10.8673
▁zaporne	-10.8674
▁dijaki	-10.8677
▁študentov	-10.8679
▁trenutke	-10.8681
▁kuhinji	-10.8681
▁odlične	-10.8683
▁vremena	-10.8684
▁partizan	-10.8687
▁stiku	-10.869
▁nakazal	-10.869
▁pišejo	-10.8692
▁zgodbi	-10.8695
▁preostalih	-10.8695
▁sklenjen	-10.8696
▁živeli	-10.8698
▁turnirju	-10.8699
▁prijatelje	-10.8699
▁berlinu	-10.87
▁temperatura	-10.8701
▁ab	-10.8701
vca	-10.8701
▁samostojno	-10.8703
izmu	-10.8709
▁dostopa	-10.8709
▁trenira	-10.8709
▁58	-10.8712
▁oddelku	-10.8713
ndi	-10.8714
▁turistične	-10.8714
▁razložil	-10.8719
▁zgoraj	-10.8723
▁obupa	-10.8723
▁njuna	-10.8723
▁celice	-10.8729
▁napadom	-10.873
▁zmagali	-10.873
▁droge	-10.873
▁kleti	-10.8731
joči	-10.8736
▁pametno	-10.8739
▁reforme	-10.8739
▁mladost	-10.8742
samo	-10.8743
▁thomas	-10.8745
▁podala	-10.8746
▁napetosti	-10.8747
▁ponavlja	-10.8748
▁rekoč	-10.8749
▁audi	-10.8751
▁vsakič	-10.8751
▁ukrajina	-10.8755
▁prepričati	-10.8758
▁igralce	-10.8759
▁iskati	-10.8765
▁odvrnil	-10.8765
▁mladenič	-10.8765
▁dirkač	-10.8765
▁pisal	-10.8766
▁west	-10.8768
▁wa	-10.8771
▁upajo	-10.8771
▁boril	-10.8773
▁rečeno	-10.8774
▁volilne	-10.8775
▁sposobni	-10.8777
▁sončni	-10.8779
▁bor	-10.8779
▁štajerski	-10.8781
▁padcu	-10.8781
yo	-10.8789
▁večine	-10.8795
▁nogometašev	-10.8795
▁njun	-10.8797
▁grem	-10.8797
▁skrbijo	-10.8798
▁poslanca	-10.8799
▁ekstrem	-10.8799
▁znamko	-10.8802
▁podprl	-10.8805
▁razmerju	-10.8805
▁čustveno	-10.8808
živi	-10.8808
stru	-10.881
▁menim	-10.8812
▁nasprotni	-10.8813
▁intervencij	-10.8816
vis	-10.8817
▁odgovoren	-10.8818
ela	-10.882
▁disk	-10.882
▁mednarodnem	-10.8823
▁deloma	-10.8824
▁vzor	-10.8827
▁ruskih	-10.8829
▁nenadoma	-10.8832
▁tovarni	-10.8833
▁golf	-10.8834
tični	-10.8838
▁dunaju	-10.8839
▁nastopili	-10.8839
▁italijo	-10.8842
ier	-10.8842
▁stresa	-10.8844
▁streli	-10.8844
čenja	-10.8844
▁plaži	-10.8848
▁izginil	-10.8849
niškem	-10.885
▁pelje	-10.8854
▁pripravljenosti	-10.8857
▁zajema	-10.8857
▁invalid	-10.8858
▁."	-10.8859
▁drugačni	-10.8859
▁sms	-10.8861
▁rev	-10.8863
lice	-10.8868
▁mame	-10.8869
▁vnosom	-10.887
▁posnela	-10.887
▁vaj	-10.8874
▁popovič	-10.8875
▁istega	-10.8879
▁hrbet	-10.8879
▁šentilj	-10.8879
▁plina	-10.8881
▁proizvod	-10.8881
▁znašal	-10.8882
piše	-10.8884
af	-10.8884
▁pisali	-10.8886
▁industrije	-10.8888
▁upad	-10.8888
▁prosi	-10.889
▁odpad	-10.8892
▁pristojnosti	-10.8892
▁kulturne	-10.8895
▁nama	-10.8895
▁prijav	-10.8895
št	-10.8897
▁pojavil	-10.8898
▁spregovorila	-10.8904
▁formi	-10.8906
▁prišle	-10.8906
▁prepričal	-10.8907
▁slovesnosti	-10.8909
▁prispevek	-10.8909
▁vede	-10.891
▁skladno	-10.891
nos	-10.8913
▁sodelovalo	-10.8914
skrb	-10.8914
▁izola	-10.8914
▁turčijo	-10.8917
▁blok	-10.8917
▁občinski	-10.892
▁zdravju	-10.8922
nskem	-10.8923
▁vladni	-10.8923
▁sporočajo	-10.8923
▁jajca	-10.8923
▁omenjenega	-10.8924
▁operaciji	-10.8924
▁spolnih	-10.8926
▁nkbm	-10.8927
ib	-10.8927
cer	-10.8929
▁ljubljansko	-10.893
▁slovo	-10.8933
▁pridobila	-10.8933
anju	-10.8935
▁začetni	-10.8935
▁kombinacija	-10.8935
▁kru	-10.8936
▁njenim	-10.8936
19	-10.8936
▁olimpijo	-10.894
tih	-10.8941
▁zadržan	-10.8942
▁papir	-10.8944
▁noro	-10.8944
novo	-10.8944
▁snemal	-10.8944
▁nameščen	-10.8945
▁modre	-10.8945
▁površine	-10.8946
▁sedanji	-10.8949
▁(4	-10.895
▁spravil	-10.8952
▁divja	-10.8955
▁bliža	-10.8956
▁rezerv	-10.8957
▁prijave	-10.8958
▁postopkih	-10.8958
▁posveča	-10.8964
▁spodnjem	-10.8964
▁2,5	-10.8965
▁2003	-10.8966
▁podjetji	-10.8966
▁mario	-10.8969
▁prostega	-10.8971
▁kg	-10.8975
ndo	-10.8975
▁mentor	-10.8975
▁gospodarskih	-10.898
▁petkov	-10.8981
▁premik	-10.8981
▁dodatek	-10.8981
▁premika	-10.8981
▁naredijo	-10.8981
▁tvit	-10.8984
▁britanskega	-10.8984
▁spopad	-10.8984
▁znašli	-10.8985
pil	-10.8987
▁sposobnost	-10.8988
▁zmagovalca	-10.8989
▁aplikacij	-10.8991
▁130	-10.8992
▁62	-10.8994
▁stra	-10.8995
▁pretirava	-10.8996
cion	-10.8999
▁množično	-10.9001
▁kulturno	-10.9001
▁železniški	-10.9005
▁različna	-10.9007
▁znanosti	-10.9009
▁social	-10.9009
čenje	-10.9012
▁imenovani	-10.9016
▁osmi	-10.9016
▁ljudeh	-10.9016
đ	-10.9017
▁smučarski	-10.9018
▁minulih	-10.9018
▁mas	-10.9018
▁prilagojen	-10.9023
▁jadran	-10.9025
▁družinske	-10.9027
▁kave	-10.9027
▁avtomobile	-10.9028
lk	-10.9028
▁kirurg	-10.903
▁medicine	-10.9034
enje	-10.9037
▁begu	-10.9037
▁črna	-10.9041
▁politik	-10.9044
▁občutno	-10.9044
▁pamet	-10.9044
▁prizor	-10.9045
▁težka	-10.9047
▁srečno	-10.9051
izaciji	-10.9054
▁spletnega	-10.9054
▁podvig	-10.9057
▁januar	-10.9058
▁fran	-10.906
▁komentirate	-10.9065
▁ameriki	-10.9068
▁alenke	-10.9072
▁tujine	-10.9072
▁klet	-10.9074
iki	-10.9077
▁zgodb	-10.9077
▁obvezno	-10.9077
▁naslednjem	-10.9078
▁imeni	-10.9082
▁povečalo	-10.9085
▁pogodb	-10.9086
▁regije	-10.9087
▁silo	-10.9087
▁moška	-10.9088
▁lotili	-10.909
▁polne	-10.909
▁slovence	-10.909
▁povzpel	-10.909
▁okolice	-10.9091
▁košir	-10.9091
aktiv	-10.9093
▁štirikrat	-10.9094
▁5000	-10.9094
▁jar	-10.9095
▁nekaterim	-10.9095
▁stopi	-10.9099
▁smel	-10.91
▁lastnikov	-10.91
▁prodati	-10.9101
▁analize	-10.9105
▁gri	-10.9108
rko	-10.9108
▁prispel	-10.9117
▁pogleda	-10.9117
▁odveč	-10.9117
▁preselil	-10.9118
▁navedbe	-10.9118
▁odločitvijo	-10.9118
gri	-10.9122
▁dresu	-10.9122
▁steklo	-10.9123
nina	-10.9125
,“	-10.9125
▁sledili	-10.9126
novi	-10.9127
kul	-10.9127
▁nekatera	-10.913
lle	-10.9135
▁mleka	-10.9135
▁upravljanja	-10.9139
▁veleposlanik	-10.9143
▁zahvalil	-10.9143
▁naslednja	-10.9144
▁obljublja	-10.9145
▁(3	-10.9145
▁tednom	-10.9145
▁bralec	-10.9146
▁obvlada	-10.9147
▁zamenja	-10.9148
▁jack	-10.9149
plo	-10.9149
bila	-10.915
rl	-10.915
▁razpad	-10.9155
▁žreb	-10.9155
▁njuno	-10.9157
▁ljubitelji	-10.9157
▁nastopom	-10.9158
▁skupna	-10.9159
ć	-10.9162
▁posnetke	-10.9164
▁zaprosil	-10.9164
▁odšli	-10.9164
▁vidno	-10.9166
▁izdajo	-10.9166
irala	-10.9167
▁ponosni	-10.9167
str	-10.9168
▁tema	-10.917
▁pritiskom	-10.917
▁naredimo	-10.917
▁britanske	-10.9171
▁nejc	-10.9173
▁zaostaja	-10.9177
▁športu	-10.9177
▁imenovanje	-10.9178
▁dogovoru	-10.9178
▁lepotica	-10.9178
▁jur	-10.9179
▁nadškof	-10.9179
niških	-10.918
▁ram	-10.9182
▁barvo	-10.9182
▁reform	-10.9185
▁starega	-10.9186
išču	-10.9188
▁zunanjega	-10.9188
vija	-10.9189
tka	-10.919
nejo	-10.919
▁tedne	-10.9191
▁izbiri	-10.9192
▁stan	-10.9193
meni	-10.9195
▁zaprte	-10.9198
▁duhovnik	-10.9198
▁vladne	-10.92
▁ustaviti	-10.9201
▁reki	-10.9202
▁mast	-10.9202
▁spremljal	-10.9203
▁dodamo	-10.9204
▁glasovi	-10.9205
▁pojavljajo	-10.9206
▁previdno	-10.9211
▁glasovanja	-10.9212
▁potoval	-10.9212
▁ministrice	-10.9214
▁spodaj	-10.9214
▁rdeča	-10.9214
▁konji	-10.9215
▁opazoval	-10.9215
▁kriva	-10.9216
▁pivo	-10.9217
▁prisotnost	-10.9217
▁2:1	-10.9218
▁kras	-10.9219
▁avstraliji	-10.922
▁nebo	-10.922
▁meša	-10.922
▁loči	-10.9221
▁njuni	-10.9223
▁aplikacijo	-10.9224
▁laboratorij	-10.9227
▁žar	-10.9228
ića	-10.9228
▁zbiranje	-10.923
▁februar	-10.923
▁uvedli	-10.9231
▁ocenili	-10.9236
▁morebitnih	-10.9236
▁gen	-10.9237
▁izkoristili	-10.9238
▁tuš	-10.9238
▁plod	-10.9242
▁obleko	-10.9246
▁mate	-10.9246
▁tekoče	-10.925
▁vezi	-10.925
▁naravne	-10.925
▁prah	-10.9251
▁znajde	-10.9251
▁interneta	-10.9255
▁popolna	-10.9255
▁odgovori	-10.9257
▁neto	-10.9259
▁nacionalne	-10.926
▁vlom	-10.9262
▁dihal	-10.9262
▁opravljanje	-10.9262
▁arbitražnega	-10.9263
▁izraža	-10.9264
▁odgovore	-10.9265
▁zaslišanje	-10.9266
▁pregledu	-10.9267
▁dvoboju	-10.9271
▁objavlja	-10.9271
▁dobimo	-10.9272
▁ledu	-10.9273
▁kamp	-10.9275
šu	-10.9276
▁vozni	-10.9277
▁resne	-10.9281
▁minutami	-10.9282
▁ladja	-10.9282
▁odrasli	-10.9283
▁revijo	-10.9284
▁obvešča	-10.9284
▁mlakar	-10.9285
▁imenuje	-10.9286
▁koreja	-10.9287
▁odprt	-10.9288
teh	-10.929
▁are	-10.9291
▁ukrajino	-10.9293
5.000	-10.9293
▁76	-10.9295
▁mestnega	-10.9298
▁nikar	-10.93
▁temelj	-10.93
▁terapevt	-10.9301
▁sir	-10.9303
▁zadovoljstvo	-10.9303
▁razpravo	-10.9305
▁ospredju	-10.9306
▁koncertu	-10.9308
▁volivci	-10.9308
▁prihodnjega	-10.9313
▁računalnikov	-10.9314
▁navedel	-10.9316
▁izgublja	-10.9317
▁island	-10.9317
▁razočaran	-10.9321
▁škodi	-10.9323
▁virant	-10.9326
▁uničil	-10.9327
▁mars	-10.9327
▁otroku	-10.9331
▁spol	-10.9331
▁koalicijske	-10.9332
▁izbrani	-10.9332
lica	-10.9333
▁krško	-10.9335
čnem	-10.9336
dnevni	-10.9336
reš	-10.934
▁95	-10.9341
▁vrti	-10.9345
▁izidi	-10.9346
▁različica	-10.9347
▁levice	-10.9348
▁menil	-10.9349
▁ribe	-10.935
▁pravnomočno	-10.935
▁gorenje	-10.9351
▁proizvajalci	-10.9353
▁nhl	-10.9355
ure	-10.9357
▁kakovostno	-10.9359
▁učinkov	-10.9362
▁regionalni	-10.9363
▁vprašanih	-10.9364
▁che	-10.9365
22	-10.9365
▁desetimi	-10.9368
žene	-10.9372
duš	-10.9373
▁umaknil	-10.9373
brez	-10.9373
▁predčasno	-10.9374
▁večjem	-10.9375
▁zlom	-10.9377
▁časnika	-10.9379
pelj	-10.9379
▁raziskoval	-10.9379
▁čedalje	-10.938
9,	-10.9381
▁am	-10.9381
▁vase	-10.9382
▁madžarsko	-10.9382
▁valentino	-10.9383
▁druženje	-10.9385
▁združuje	-10.9386
▁odrasle	-10.9387
▁preboj	-10.9387
▁krajši	-10.9389
▁strup	-10.9389
▁mariborskega	-10.939
▁obiskali	-10.9391
▁prehrane	-10.9392
▁tone	-10.9392
▁nastaja	-10.9392
▁slam	-10.9395
▁voz	-10.9396
▁pojavijo	-10.9397
▁pusti	-10.9397
▁žene	-10.9399
▁smeli	-10.94
▁domačo	-10.9401
▁reševanju	-10.9401
▁prestrukturiran	-10.9402
▁skrajni	-10.9403
▁pridružila	-10.9403
▁preprečil	-10.9405
▁niko	-10.9407
▁navodila	-10.9407
▁slovenskimi	-10.9408
▁celotnega	-10.9409
▁krompir	-10.9409
▁popust	-10.9415
jših	-10.9416
▁največjega	-10.9418
car	-10.942
jevega	-10.942
▁različico	-10.9421
rskih	-10.9421
▁čuti	-10.9424
čevanja	-10.9424
▁sili	-10.9425
▁najvišja	-10.9425
▁hladne	-10.9426
▁naprava	-10.9429
▁temeljito	-10.943
▁tožil	-10.9431
▁zelene	-10.9431
▁kolena	-10.9431
▁sašo	-10.9431
▁pridobitev	-10.9432
▁fla	-10.9434
“	-10.9435
▁snemanje	-10.9436
▁glasbenih	-10.9438
▁ukvarjajo	-10.9438
olu	-10.9438
▁voznica	-10.9441
▁pomočnik	-10.9441
▁zadnjič	-10.9443
▁utegne	-10.9443
lina	-10.9445
pen	-10.9446
▁ivana	-10.9447
meša	-10.9449
▁eksplozija	-10.9449
▁pretep	-10.9452
▁uradnih	-10.9453
▁carin	-10.9453
▁izidom	-10.9454
▁sklenila	-10.9454
▁organizator	-10.9455
▁hčerki	-10.9456
▁tožbe	-10.9456
▁braziliji	-10.9456
▁trčenju	-10.9458
▁15-	-10.946
▁majhen	-10.946
▁poletni	-10.9462
▁sergej	-10.9462
▁veteran	-10.9463
▁smrtjo	-10.9463
ljeno	-10.9464
▁dobiva	-10.9465
▁zasebno	-10.9465
75	-10.9465
jevih	-10.9471
▁severna	-10.9472
▁tekst	-10.9473
iranja	-10.9473
bs	-10.9479
▁množico	-10.9481
▁bral	-10.9485
▁širši	-10.9486
bir	-10.9495
▁tiska	-10.9495
▁objave	-10.9497
▁renault	-10.9498
▁obraza	-10.9499
ništvo	-10.9501
▁višino	-10.9501
▁pozvali	-10.9502
▁primera	-10.9503
▁tvoj	-10.9505
▁kaos	-10.9505
:10	-10.9508
▁samostojni	-10.9509
▁prepričanje	-10.9511
▁železnic	-10.9512
▁dotik	-10.9512
voz	-10.9513
▁nogometu	-10.9514
▁vprašali	-10.9516
▁srčno	-10.9516
▁uporabite	-10.9516
▁nadaljevati	-10.9517
▁pustili	-10.9518
▁beleži	-10.9522
▁tamkajšnje	-10.9523
kanje	-10.9523
▁ogledalo	-10.9524
▁omrežij	-10.9525
▁naložb	-10.9526
▁združenje	-10.9527
▁navade	-10.9529
▁frančišek	-10.9534
▁pokojnine	-10.9535
▁izstopa	-10.9535
▁ustavila	-10.9536
▁pl	-10.9536
▁odlični	-10.954
▁kompromis	-10.9541
▁odstopa	-10.9543
▁gb	-10.9543
▁podjetjih	-10.9546
▁inštitutu	-10.9548
▁voditelja	-10.9553
▁voznike	-10.9553
▁posebni	-10.9554
▁izreče	-10.9556
▁poje	-10.9559
▁političnega	-10.9559
▁prvim	-10.9561
▁zanimive	-10.9561
▁podpisov	-10.9561
▁ustave	-10.9563
▁min	-10.9564
▁kangler	-10.9564
▁(13	-10.9565
cen	-10.9565
▁splošne	-10.9566
lak	-10.9566
▁ostre	-10.9567
▁voyo	-10.957
▁jugoslavije	-10.9571
mej	-10.9572
ud	-10.9577
▁sodiščem	-10.9577
▁pravosodje	-10.9578
▁načrtih	-10.9578
▁turisti	-10.9579
▁kandidaturo	-10.9579
▁eksploziv	-10.9579
rož	-10.9579
▁parlamentarne	-10.958
▁naravnih	-10.9581
▁ljubljanska	-10.9581
▁obiskovalce	-10.9581
▁ljubljanskih	-10.9586
▁buč	-10.9587
▁zavedati	-10.959
▁evakuirali	-10.959
▁bolnike	-10.959
▁notranjega	-10.9591
▁boleznijo	-10.9591
▁vadbe	-10.9591
▁narava	-10.9592
▁klubov	-10.9593
▁konkurenco	-10.9593
▁čar	-10.9594
▁programe	-10.9596
▁nego	-10.9598
▁polčasa	-10.96
žna	-10.9603
▁preiskovalni	-10.9605
▁celja	-10.9607
ting	-10.9607
▁možna	-10.9608
▁pokazalo	-10.9609
▁tlak	-10.9609
▁sezon	-10.9609
▁mislili	-10.9612
kro	-10.9612
▁najdejo	-10.9613
▁novinarja	-10.9613
▁71	-10.9614
ološki	-10.9615
▁ustvarjanje	-10.9616
▁razširjen	-10.9616
▁potrebnih	-10.9617
kel	-10.9618
▁sklenili	-10.9618
▁playboy	-10.9618
▁skratka	-10.9619
rie	-10.9619
▁posredoval	-10.962
▁rešila	-10.9621
▁vratu	-10.9622
▁minilo	-10.9626
▁televizijski	-10.9626
▁ponudnik	-10.9627
:00	-10.9627
▁občinstvo	-10.9629
000	-10.9629
▁mestna	-10.9633
▁goli	-10.9634
▁katastrofa	-10.9635
ranje	-10.9636
▁ecb	-10.964
▁sava	-10.9641
▁rdečega	-10.9642
▁skrivnosti	-10.9643
▁22-	-10.9645
▁kmetija	-10.9647
▁kombi	-10.9647
▁obletnici	-10.9648
▁minus	-10.9648
▁pripadnikov	-10.9649
▁navedli	-10.965
tion	-10.9652
▁ak	-10.9653
▁zabil	-10.9654
▁kombinaciji	-10.9655
▁zlate	-10.9656
▁fotoaparat	-10.9656
▁odkril	-10.9657
▁navodil	-10.9658
▁plesal	-10.9661
▁odhodom	-10.9663
ročni	-10.9664
▁široko	-10.9664
▁posneli	-10.9664
ljive	-10.9666
▁1500	-10.9667
▁obrambe	-10.9668
▁strokovne	-10.9668
raž	-10.9669
▁močni	-10.9671
▁doba	-10.9671
▁gledali	-10.9675
▁baj	-10.9675
▁sestri	-10.9675
▁športniki	-10.9675
▁68	-10.9676
▁poslanka	-10.9677
▁plava	-10.9678
▁pijače	-10.9678
▁zimskih	-10.9679
▁zemljišča	-10.968
pati	-10.9681
▁modela	-10.9682
▁prislužil	-10.9684
▁rdečo	-10.9685
▁tehnične	-10.9685
tične	-10.9687
▁čudno	-10.9687
▁okno	-10.9687
▁spomni	-10.9689
▁geo	-10.9692
▁agrokor	-10.9694
▁odnosa	-10.9695
▁madžarske	-10.9695
▁popolni	-10.9695
▁viden	-10.9698
▁pik	-10.9698
▁bolečina	-10.97
▁vrnitvi	-10.97
▁vsebina	-10.9702
▁smiselno	-10.9704
00€	-10.9705
▁zver	-10.9705
▁07	-10.9709
▁kas	-10.971
▁bogate	-10.971
▁vzhod	-10.9711
▁ureja	-10.9714
▁beogradu	-10.9715
▁situaciji	-10.9715
▁prehitel	-10.9715
▁orožjem	-10.9716
▁verjamejo	-10.9717
▁omogočili	-10.9718
▁rojen	-10.9719
▁prstan	-10.9719
▁obrazu	-10.972
▁opravičil	-10.9727
housing	-10.9731
▁trenutkih	-10.9732
▁koz	-10.9733
▁nevarna	-10.9735
▁dosežek	-10.9735
▁ocena	-10.9736
▁smučarskih	-10.9738
▁kavčič	-10.9738
▁krožnik	-10.9738
▁potrditev	-10.9739
▁otroški	-10.9741
▁igrišče	-10.9741
▁posnetkov	-10.9743
▁zapušča	-10.9744
▁izguba	-10.9745
▁tur	-10.9745
▁nemir	-10.9748
▁zavzema	-10.9749
▁prepričanju	-10.9751
▁ravnatelj	-10.9753
▁postanejo	-10.9754
▁trd	-10.9754
▁prepozno	-10.9756
▁norvežan	-10.9758
▁nemških	-10.9758
▁potrošnikov	-10.9759
▁1:1	-10.976
▁čeferin	-10.9762
▁21-	-10.9764
▁očetov	-10.9764
▁inšpektor	-10.9765
▁izbrane	-10.9765
▁znamka	-10.9766
▁delovati	-10.9769
ama	-10.9769
▁počakati	-10.977
▁društvu	-10.9772
▁bab	-10.9772
▁centrih	-10.9773
▁izdelavo	-10.9774
▁dajejo	-10.9776
niškega	-10.9779
ep	-10.978
rina	-10.978
▁dis	-10.9782
▁članek	-10.9784
▁železniške	-10.9784
▁nasvetov	-10.9785
▁fre	-10.9787
▁opisuje	-10.9788
▁sodijo	-10.9789
▁taylor	-10.9791
▁ohraniti	-10.9791
▁daril	-10.9791
▁japonski	-10.9792
▁medijem	-10.9792
vel	-10.9797
▁hitre	-10.9801
▁nevarni	-10.9801
▁nog	-10.9803
▁vrednot	-10.9803
▁postopno	-10.9804
ori	-10.9805
▁višjih	-10.9807
▁težki	-10.9811
▁trdno	-10.9811
vita	-10.9811
▁omejitve	-10.9812
▁kosti	-10.9812
ct	-10.9812
▁prag	-10.9816
▁tvoje	-10.9817
▁odpovedal	-10.9819
kre	-10.9819
▁andre	-10.9821
▁turizma	-10.9824
▁rss	-10.9824
▁trackback	-10.9825
▁alex	-10.9825
32	-10.9826
▁q	-10.9827
▁metal	-10.9828
▁zgrešil	-10.9828
čnost	-10.9828
▁sodeč	-10.9828
▁katar	-10.9829
▁lista	-10.9829
▁(+	-10.983
▁uvrstili	-10.9835
▁varnostno	-10.9838
▁1,3	-10.9839
▁multimedijske	-10.9841
kol	-10.9842
▁najnižje	-10.9843
▁sreči	-10.9846
▁postavo	-10.9849
▁učinki	-10.9849
▁branilec	-10.9851
istični	-10.9852
▁spoznava	-10.9853
▁razmišljajo	-10.9854
▁zbranih	-10.9855
▁vodilnih	-10.9857
sul	-10.9857
▁uporabljamo	-10.9858
ljene	-10.9859
▁69	-10.986
dd	-10.9861
▁pust	-10.9863
▁dokapitalizacij	-10.9864
šnje	-10.9865
▁kazenskem	-10.9865
▁naročila	-10.9866
▁pozabili	-10.9867
▁predčasne	-10.9867
kove	-10.9867
▁jemlje	-10.9867
pin	-10.9867
čevo	-10.9867
▁matic	-10.987
▁potegnil	-10.9871
▁majhno	-10.9876
▁zmagovalka	-10.9876
▁rop	-10.9878
▁trideset	-10.9881
▁preganja	-10.9883
lko	-10.9883
▁veselo	-10.9887
▁orban	-10.9887
▁razširil	-10.9889
▁kopač	-10.9891
17	-10.9891
▁cesar	-10.9892
▁slikar	-10.9896
▁mislih	-10.9897
▁tretjič	-10.9897
▁odločajo	-10.9898
▁obiskom	-10.9899
▁nastanek	-10.9903
▁baterije	-10.9903
▁59	-10.9903
▁islamska	-10.9903
▁ugotoviti	-10.9905
lon	-10.9905
▁podobnega	-10.9906
▁prekinil	-10.9907
▁sestavi	-10.9909
▁selektorja	-10.9909
▁odgovora	-10.991
▁košarkar	-10.9911
▁navdušila	-10.9911
▁gorivo	-10.9914
▁gostitelji	-10.9914
▁riž	-10.9915
▁ivo	-10.9916
▁podrobno	-10.9916
?"	-10.9917
saj	-10.9918
▁obnaša	-10.992
▁portalu	-10.9923
▁omenjena	-10.9923
18	-10.9927
▁marjana	-10.9927
▁izenačen	-10.9927
▁upravni	-10.9928
▁ed	-10.9929
▁zupančič	-10.993
▁zalog	-10.9932
▁kav	-10.9932
▁karavan	-10.9934
▁parlamentarnih	-10.9939
▁včerajšnji	-10.9939
▁sčasoma	-10.994
▁transport	-10.994
▁emi	-10.9946
55	-10.9946
▁odzvala	-10.9947
▁kontrol	-10.9948
▁glasovali	-10.9949
▁požel	-10.995
▁profimedia	-10.9954
▁deleža	-10.9954
▁znaki	-10.9955
▁izdaje	-10.9956
▁novinarka	-10.9962
▁napisala	-10.9965
▁žep	-10.9965
lit	-10.9968
▁možni	-10.997
▁nastalo	-10.9973
▁katja	-10.9973
▁celotna	-10.9973
▁ptuju	-10.9973
▁zaposlovanje	-10.9975
▁obstoj	-10.9976
▁rekordno	-10.9979
yja	-10.998
vre	-10.998
▁zasebnih	-10.998
▁tradicijo	-10.9981
▁113	-10.9983
▁udeležila	-10.9984
▁želji	-10.9984
▁roma	-10.9984
▁krst	-10.9984
▁skladbo	-10.9985
sr	-10.9987
▁južne	-10.9987
▁predsedniški	-10.9988
▁karkoli	-10.999
▁lesa	-10.9992
▁izpod	-10.9994
▁sodobni	-10.9996
▁možne	-10.9998
▁ritem	-10.9999
▁dar	-10.9999
bolj	-10.9999
▁obrambni	-11
nejših	-11.0002
▁9,	-11.0002
▁hrib	-11.0003
▁njiju	-11.0004
▁sestavlja	-11.0004
▁vrta	-11.0005
▁inženir	-11.0008
▁band	-11.0009
▁operacij	-11.0012
▁zdravstvenem	-11.0013
▁odgovorili	-11.0014
▁interesov	-11.0015
▁pristala	-11.0015
▁zdravljenju	-11.0019
▁obsoja	-11.0021
puščen	-11.0023
▁pravilo	-11.0024
▁delila	-11.0025
▁ford	-11.0025
▁upravitelj	-11.0028
▁financira	-11.003
▁prispeva	-11.0032
ništva	-11.0037
▁znal	-11.0038
pravi	-11.0041
▁kopal	-11.0042
▁sojenju	-11.0043
▁licitacija	-11.0043
▁igrišča	-11.0044
gov	-11.0045
tja	-11.0046
▁19-	-11.0046
poved	-11.0046
▁1991	-11.0047
▁gospodarskega	-11.0047
▁bru	-11.0047
▁prepir	-11.0049
▁atletico	-11.0052
▁ustavni	-11.0052
▁dopušča	-11.0053
▁koaliciji	-11.0054
▁terorističnih	-11.0054
▁kombinira	-11.0055
▁slabši	-11.0055
▁luki	-11.0056
▁junij	-11.0056
▁vez	-11.0057
▁77	-11.0059
žan	-11.006
▁ukrepa	-11.0062
▁delodajalci	-11.0063
▁španec	-11.0063
▁turistični	-11.0063
▁amazon	-11.0064
▁konoplje	-11.0064
ion	-11.0065
▁jam	-11.0066
▁institucij	-11.0067
▁trčila	-11.0067
▁primerne	-11.007
▁sporno	-11.007
▁izrazito	-11.0071
▁vanjo	-11.0071
▁romana	-11.0072
▁šolski	-11.0073
▁prevzeli	-11.0073
▁predstavljamo	-11.0074
▁mestnem	-11.0074
vor	-11.0082
iča	-11.0082
▁poroke	-11.0084
▁ya	-11.0086
▁potezo	-11.0086
▁jasni	-11.0088
▁španija	-11.0091
▁ios	-11.0092
iš	-11.0096
▁delam	-11.0099
▁honda	-11.0104
dno	-11.0104
▁okrepil	-11.0105
▁izjav	-11.0105
▁postopoma	-11.0106
▁zaslugi	-11.0107
▁manjšo	-11.0108
▁pogodbi	-11.0109
nicah	-11.0109
▁odkrito	-11.0111
▁uči	-11.0111
▁prestopil	-11.0111
▁prič	-11.0111
▁pada	-11.0112
▁ham	-11.0112
▁pištolo	-11.0112
▁morete	-11.0114
▁74	-11.0118
▁operacija	-11.0118
▁26-	-11.0119
▁zagrozil	-11.0119
▁gradnja	-11.0121
▁razglasil	-11.0121
▁reševanja	-11.0123
▁ponosen	-11.0125
▁neurje	-11.0126
▁uveljavlja	-11.0128
deli	-11.0128
▁šotor	-11.0129
▁zasedbe	-11.0132
▁pozabil	-11.0134
og	-11.0134
”,	-11.0136
fl	-11.0137
▁razumem	-11.014
▁sonca	-11.0141
letnemu	-11.0141
▁učinkovit	-11.0141
▁ciljem	-11.0145
▁daljše	-11.0147
pon	-11.0147
▁imen	-11.015
▁navdušuje	-11.0152
▁pihal	-11.0152
▁malega	-11.0153
▁ogledali	-11.0153
▁pošti	-11.016
▁davčni	-11.0163
▁unija	-11.0163
▁odpravo	-11.0164
▁zdravniku	-11.0165
▁članku	-11.0165
▁koreji	-11.0165
▁tehnično	-11.0168
▁ribič	-11.0168
▁dodaten	-11.0168
bro	-11.0169
▁slavo	-11.0169
▁življenjske	-11.0172
▁najmlajši	-11.0175
▁obletnico	-11.0177
▁tragedija	-11.0181
▁koalicijski	-11.0181
▁napis	-11.0181
▁vizita	-11.0183
▁medaljo	-11.0185
▁zniža	-11.0186
▁sledilo	-11.0187
▁dušo	-11.0187
▁konkurence	-11.0189
▁ekonomske	-11.0189
pora	-11.0189
▁iran	-11.0189
▁petrol	-11.0192
▁sposoben	-11.0193
▁sredstvo	-11.0193
▁bull	-11.0196
▁izbire	-11.0196
▁problema	-11.0198
stev	-11.0199
irani	-11.0204
▁kraljev	-11.0204
▁vhod	-11.0204
▁2001	-11.0207
▁potrebni	-11.0208
▁nk	-11.0208
▁koalicijo	-11.0209
-1	-11.0209
▁potok	-11.0215
▁držal	-11.0215
rit	-11.0216
▁izročil	-11.0216
▁predlagali	-11.0217
▁prejema	-11.0217
▁ac	-11.0218
▁ambulant	-11.0219
▁zbrala	-11.0221
▁naslovu	-11.0222
▁namig	-11.0222
▁znižanje	-11.0224
▁trans	-11.0224
▁dokumenta	-11.0227
▁delavce	-11.0232
▁privoščite	-11.0233
▁volilna	-11.0233
▁islam	-11.0234
▁kupila	-11.0237
▁zelenjavo	-11.0238
▁varstva	-11.0238
▁načrtu	-11.024
mak	-11.0243
▁posteljo	-11.0243
▁demokracije	-11.0243
▁grčijo	-11.0245
▁procesu	-11.0246
▁sojenja	-11.0247
▁pripeljala	-11.0247
▁pripravljal	-11.0248
▁bron	-11.025
▁uživali	-11.025
▁2002	-11.025
▁tožilka	-11.0251
arji	-11.0252
▁očeh	-11.0254
▁povezava	-11.0254
▁upravičeno	-11.0255
▁navad	-11.0256
▁zdaleč	-11.0257
▁vozijo	-11.0258
evanja	-11.0258
▁konkurenci	-11.0259
▁ustavo	-11.026
deset	-11.0261
tin	-11.0264
▁trajal	-11.0266
▁razmišljati	-11.0268
▁pravnih	-11.0269
▁notranjost	-11.0269
▁ščiti	-11.0271
▁osumljen	-11.0272
▁nastale	-11.0272
▁propad	-11.0276
▁uredili	-11.0276
lad	-11.0277
▁deklice	-11.0278
▁prejšnjih	-11.0284
ografij	-11.0287
▁izkoristiti	-11.0287
▁podprla	-11.0288
▁1200	-11.0289
▁ogledate	-11.0292
▁uspešne	-11.0292
▁preiskujejo	-11.0292
▁polfinale	-11.0295
▁priljubljen	-11.0295
▁pomerili	-11.0295
▁sled	-11.0295
ravna	-11.0296
▁upor	-11.0297
▁prijateljem	-11.0298
▁ocean	-11.0299
▁zmanjkalo	-11.0299
▁stališč	-11.0299
▁mad	-11.0299
sten	-11.0301
▁odpovedi	-11.0301
▁petnajst	-11.0302
▁resnico	-11.0305
▁http	-11.0305
▁sprosti	-11.0305
▁ključne	-11.0305
▁tradicionalni	-11.0306
▁usoda	-11.0306
▁gramov	-11.0307
▁zanimalo	-11.0308
▁urnik	-11.0313
tech	-11.0314
trga	-11.0317
▁poiskati	-11.0319
▁minimalne	-11.032
▁infrastrukture	-11.0321
▁pomerila	-11.0321
▁priporoča	-11.0322
▁napadal	-11.0323
▁tradicionalne	-11.0324
▁turške	-11.0326
▁bravo	-11.033
ovim	-11.0332
▁gospodarstvu	-11.0334
vanj	-11.0335
evanje	-11.0336
▁turčije	-11.0337
▁načina	-11.0337
▁elektronski	-11.0337
▁slavni	-11.0338
▁110	-11.0338
izira	-11.0339
▁motnje	-11.0339
▁stavbo	-11.034
stoj	-11.0341
▁zajel	-11.0342
ture	-11.0343
▁beljakovin	-11.0344
▁sobote	-11.0345
▁policijska	-11.0345
▁pogledu	-11.0348
▁kadi	-11.0348
▁globalni	-11.0349
▁datotek	-11.0353
▁poskušala	-11.0353
▁predor	-11.0354
▁mraz	-11.0354
▁dvorano	-11.0358
▁poteza	-11.0358
▁zlorab	-11.0358
▁zavarovali	-11.0359
▁nosila	-11.0359
lly	-11.0359
▁vrstah	-11.036
▁ocenila	-11.036
kan	-11.036
▁opravljal	-11.036
▁srečala	-11.0362
▁določena	-11.0365
▁ministrico	-11.0368
▁redkih	-11.037
▁vredna	-11.037
▁zagotovi	-11.0373
▁moskvi	-11.0376
▁razumevanje	-11.0377
▁zamisli	-11.0377
▁prevoznik	-11.0378
▁ugotovitvah	-11.0379
▁počival	-11.0379
kus	-11.038
rec	-11.0381
zs	-11.0382
zel	-11.0385
▁leve	-11.0385
▁sladoled	-11.0386
▁posredovanje	-11.039
▁vstopnic	-11.039
▁domačin	-11.0392
):	-11.0393
▁znanega	-11.0397
▁superveleslalom	-11.0398
▁golom	-11.0399
16	-11.0403
tru	-11.0404
▁štr	-11.0407
alen	-11.0407
▁razglasili	-11.0408
čili	-11.0408
▁sprašujejo	-11.0409
▁noseča	-11.041
▁poganja	-11.0412
▁košarkarski	-11.0414
▁media	-11.0415
▁deležni	-11.0417
▁smrtno	-11.0417
▁col	-11.0417
▁čudovito	-11.0418
▁raziskavi	-11.0419
▁glavobol	-11.0419
▁prijateljica	-11.0419
▁pritožbe	-11.0421
▁svetnik	-11.0423
▁(2	-11.0424
vir	-11.0426
▁ujeti	-11.0431
▁traktor	-11.0431
▁zupan	-11.0433
lih	-11.0434
▁mero	-11.0434
jić	-11.0434
▁letošnja	-11.0436
▁švici	-11.0437
▁profilu	-11.0438
▁uma	-11.0442
▁(12	-11.0442
jete	-11.0443
▁srečna	-11.0443
▁izida	-11.0444
▁naravna	-11.0445
▁vero	-11.0445
▁bolečin	-11.0446
pt	-11.0448
14	-11.0449
▁hudih	-11.045
▁juventus	-11.0451
top	-11.0458
▁bitcoin	-11.0459
▁poroki	-11.0462
rojen	-11.0463
▁vlog	-11.0464
▁pogajanjih	-11.0464
▁prakse	-11.0467
▁univerza	-11.0468
▁balkan	-11.0468
▁navija	-11.0469
▁preseneča	-11.0469
▁tonin	-11.047
of	-11.047
▁previsok	-11.0471
▁grčije	-11.0472
lil	-11.0472
ljenje	-11.0473
▁povzročitelj	-11.0477
▁temperatur	-11.0479
▁zaostal	-11.0479
▁nižja	-11.048
▁glasoval	-11.0481
▁italijanske	-11.0481
▁trop	-11.0483
▁osebje	-11.0484
▁cigaret	-11.0484
zij	-11.0488
▁ane	-11.049
▁polju	-11.0491
▁mes	-11.0493
▁gorenjskem	-11.0498
▁procesa	-11.0498
rač	-11.0499
▁zajc	-11.0499
ujte	-11.05
▁združene	-11.05
nostjo	-11.0502
▁dopis	-11.0504
▁73	-11.0505
▁jordan	-11.0506
▁nasprotnik	-11.0507
▁tekmeca	-11.0511
▁nadaljevalo	-11.0512
▁učinkovitost	-11.0512
▁cristiano	-11.0513
▁namenil	-11.0514
▁vpisal	-11.0514
▁obravnave	-11.0516
▁pahorja	-11.0517
▁obžaluje	-11.0518
▁zdravstva	-11.0519
▁2015.	-11.0521
jka	-11.0523
▁črn	-11.0524
▁moškim	-11.0526
▁upokojen	-11.0529
▁komentira	-11.053
ig	-11.0535
kali	-11.0536
▁centrov	-11.0537
▁ponosna	-11.0538
▁preživeti	-11.0541
▁vpogled	-11.0542
▁boli	-11.0542
▁začasni	-11.0543
ian	-11.0548
▁telefone	-11.0551
▁france	-11.0554
▁oddelek	-11.0555
▁vzdrževanje	-11.0555
▁skrival	-11.0555
▁njihovim	-11.0557
▁industriji	-11.0559
▁vodili	-11.0559
▁furs	-11.0559
▁mel	-11.056
▁zavrnilo	-11.0563
▁izjava	-11.0563
▁zimo	-11.0564
▁glasno	-11.0565
▁hokejisti	-11.0566
▁zgodovina	-11.057
▁agencijo	-11.0574
vič	-11.0574
▁zemljevid	-11.0574
▁dolgov	-11.0575
▁izzivi	-11.0575
▁omenil	-11.0575
ljen	-11.0577
ari	-11.058
▁obračuna	-11.058
▁enaka	-11.0582
▁deklico	-11.0582
▁dosedanji	-11.0586
▁žagar	-11.0586
ljan	-11.0586
▁78	-11.0588
▁ukraden	-11.0588
▁zaposlenim	-11.0588
▁preprečuje	-11.0589
▁dvoboja	-11.0589
▁umik	-11.059
▁you	-11.0591
▁družinskih	-11.0592
▁poroka	-11.0594
▁obiskoval	-11.0595
▁pakistan	-11.0598
▁kazenskih	-11.0599
▁resničnost	-11.0599
▁analizo	-11.06
▁pregledali	-11.06
▁krepitev	-11.0601
▁podpisali	-11.0601
▁upada	-11.0603
▁porabo	-11.0604
▁znali	-11.0604
▁predmetov	-11.0606
vu	-11.0609
▁matere	-11.0609
▁razkriti	-11.0609
▁dobrem	-11.061
▁zavedamo	-11.0613
▁lotil	-11.0615
▁urediti	-11.0617
▁draga	-11.0617
▁delovanju	-11.0618
ima	-11.0618
▁izvajati	-11.0621
▁liber	-11.0621
▁absolutno	-11.0622
▁andraž	-11.0622
▁jesenice	-11.0623
▁dolgih	-11.0623
letnico	-11.0624
▁plenković	-11.0624
▁digitalni	-11.0625
▁but	-11.0626
▁mislila	-11.0627
▁problemov	-11.0628
▁nabira	-11.0629
▁nastane	-11.063
▁avstrijska	-11.063
▁tolmin	-11.063
▁ljubitelje	-11.0631
▁institucije	-11.0633
spo	-11.0634
▁sestal	-11.0635
sha	-11.0637
▁politikov	-11.0637
▁ljubim	-11.0638
▁odigrali	-11.064
▁bombo	-11.064
▁horoskop	-11.0642
▁migracij	-11.0643
▁osnova	-11.0644
▁vodenja	-11.0644
▁lažni	-11.0644
▁priporočajo	-11.0647
vajo	-11.0648
▁družinsko	-11.0648
▁sprošča	-11.0649
▁bit	-11.0649
▁2016.	-11.0649
▁golob	-11.0654
▁zavez	-11.0654
▁udeležili	-11.0655
▁mandatu	-11.0655
▁adam	-11.0657
▁27-	-11.0658
šnik	-11.0659
▁anketa	-11.0659
▁bomba	-11.0661
33	-11.0664
▁komentarji	-11.0664
▁zasedba	-11.0665
▁slovi	-11.0665
▁razprava	-11.0665
▁gospa	-11.0667
▁afere	-11.0668
▁razstava	-11.0668
▁težkih	-11.0668
▁pomenijo	-11.0669
▁prispevkov	-11.067
▁zabavi	-11.0671
▁bavčar	-11.0672
rij	-11.0673
▁gledati	-11.0673
▁arsenal	-11.0673
▁20.000	-11.0674
▁naslednjo	-11.0675
01	-11.0678
▁delovala	-11.0679
▁10-	-11.0679
▁salon	-11.0679
▁nacional	-11.0681
▁prilagaja	-11.0684
prodaj	-11.0685
nine	-11.0686
▁zaposlen	-11.069
▁september	-11.069
▁:)	-11.069
▁oko	-11.0693
▁ponedeljka	-11.0693
▁nogometno	-11.0694
▁milana	-11.0702
▁pacientov	-11.0702
▁ustvariti	-11.0702
46	-11.0708
gne	-11.071
▁gosteh	-11.0714
▁gospodinj	-11.0715
dna	-11.0716
▁razumejo	-11.0716
▁luc	-11.0716
▁končana	-11.0717
zma	-11.0718
▁pametnega	-11.0719
▁times	-11.0719
▁parov	-11.0721
▁koledar	-11.0721
▁obrnil	-11.0721
▁izvedbi	-11.0721
▁volilnih	-11.0722
▁lastnica	-11.0722
legal	-11.0723
▁španske	-11.0724
▁tor	-11.0724
▁francoskega	-11.0724
▁račune	-11.0725
▁disciplin	-11.0727
▁smučanje	-11.0728
▁odstopila	-11.0729
▁preživetje	-11.073
▁pijač	-11.073
zdaj	-11.073
▁prekinitev	-11.073
▁pin	-11.0731
gal	-11.0732
▁svetniki	-11.0732
▁pripoved	-11.0733
mel	-11.0733
▁konkretno	-11.0735
▁bolni	-11.0738
▁elektronsko	-11.0739
▁sobotni	-11.0739
▁predloge	-11.0739
tivni	-11.0741
▁gajser	-11.0743
danes	-11.0747
200	-11.0747
ščine	-11.0747
▁volišč	-11.0749
▁prst	-11.0749
▁rio	-11.0751
▁mase	-11.0752
▁zaigral	-11.0755
▁,''	-11.0756
▁počutim	-11.0757
ujemo	-11.0758
▁ogrevanje	-11.0761
▁180	-11.0761
▁zdravniške	-11.0763
ys	-11.0764
kami	-11.0766
▁uporabil	-11.0767
▁odpre	-11.0767
▁imp	-11.0768
▁prehodih	-11.0769
▁dolgem	-11.0769
▁preverja	-11.077
jočih	-11.0771
▁donos	-11.0771
▁nasprotnem	-11.0772
04	-11.0773
▁dejavnik	-11.0776
▁uspehu	-11.0777
▁krem	-11.0779
▁nedelje	-11.0779
▁molk	-11.0779
▁bere	-11.0781
fik	-11.0784
▁omogočila	-11.0785
▁zzzs	-11.0787
▁bul	-11.0787
▁50-	-11.079
21	-11.0793
▁kamnik	-11.0794
▁praksa	-11.0794
▁izjemo	-11.0796
▁(20	-11.0796
ag	-11.0797
kovi	-11.0797
▁veljati	-11.0798
rp	-11.0799
▁okolico	-11.08
▁duši	-11.0801
▁kartico	-11.0806
▁vedenje	-11.0808
▁fin	-11.081
▁prošnjo	-11.081
til	-11.0811
zda	-11.0811
▁povem	-11.0811
▁wo	-11.0812
▁deček	-11.0813
▁izjemne	-11.0815
▁umre	-11.0817
02	-11.0817
▁november	-11.0819
tina	-11.0821
▁bližje	-11.0823
▁angela	-11.0823
ičen	-11.0823
lce	-11.0824
▁zaščita	-11.0826
▁prez	-11.0827
▁remi	-11.0828
▁policijskih	-11.0829
▁višina	-11.0829
▁prihodom	-11.0831
mb	-11.0834
▁dečka	-11.0837
▁duh	-11.0838
▁cla	-11.0839
ling	-11.084
▁poletnih	-11.084
▁preostale	-11.0841
▁počiva	-11.0843
▁tretjina	-11.0844
▁odločbe	-11.0845
▁opaža	-11.0846
▁zapira	-11.0846
▁pravosodni	-11.0849
▁charles	-11.085
▁spoštuje	-11.0851
▁načinov	-11.0851
▁gib	-11.0853
▁priprava	-11.0853
▁ukradli	-11.0854
▁dnevnika	-11.0854
▁gro	-11.0855
▁mejah	-11.0855
▁zaznali	-11.0856
▁ognja	-11.0859
▁predstavnika	-11.086
▁meh	-11.0861
▁slovenke	-11.0862
▁strateg	-11.0868
▁alergij	-11.087
▁terja	-11.087
ria	-11.087
▁dejali	-11.0872
peta	-11.0874
škov	-11.0876
▁hladno	-11.0878
kriv	-11.0878
▁jubilej	-11.0881
▁boleč	-11.0881
▁zdravniški	-11.0881
alnih	-11.0882
▁nisi	-11.0884
▁dokumenti	-11.0886
▁stabilnost	-11.0888
▁povečan	-11.0888
svoji	-11.089
ning	-11.0891
▁rokometaši	-11.0894
▁hor	-11.0897
▁oglejte	-11.0897
iziran	-11.0899
▁prepričljivo	-11.09
▁dediščine	-11.09
▁navzdol	-11.09
vica	-11.0902
▁vodovod	-11.0902
čim	-11.0903
▁smith	-11.0903
▁zaželel	-11.0906
▁pogrešajo	-11.0907
▁obvestilo	-11.0907
▁zaprl	-11.0912
▁solz	-11.0912
ovci	-11.0916
▁tovrstni	-11.0918
▁84	-11.0919
▁trenutkov	-11.0919
▁predsedniških	-11.0919
▁oskrbe	-11.0921
▁odzivu	-11.0921
tivno	-11.0925
▁prelom	-11.0926
▁glasbi	-11.0926
oč	-11.0928
▁tedni	-11.0929
100	-11.0929
zz	-11.093
▁(10	-11.0933
▁napolni	-11.0934
▁švedska	-11.0935
▁sestavin	-11.0937
▁sovražnik	-11.0939
▁motorja	-11.0939
▁pomladi	-11.094
▁poznan	-11.0942
▁ustanov	-11.0942
▁novele	-11.0943
▁vodjo	-11.0944
▁odsotnosti	-11.0944
▁prikazuje	-11.0945
▁stanovanjski	-11.0946
▁šestimi	-11.0947
lat	-11.0947
▁gorazd	-11.095
▁jožef	-11.095
▁mesecem	-11.0951
▁beg	-11.0951
▁sloven	-11.0952
▁(11	-11.0952
▁prehlad	-11.0953
▁klinike	-11.0956
▁učitelji	-11.0957
▁y	-11.0957
▁nedo	-11.0958
▁prenosnik	-11.0958
las	-11.096
▁ženskam	-11.0962
▁umika	-11.0963
jske	-11.0964
▁ken	-11.0965
▁uporabiti	-11.0965
▁prehrana	-11.0965
▁prince	-11.0967
▁družabnih	-11.0968
vcu	-11.0969
▁plaval	-11.097
▁cjuha	-11.0973
▁državljana	-11.0974
▁vadba	-11.0976
▁načrtujejo	-11.0977
▁izvajali	-11.0978
▁enota	-11.0978
▁40-	-11.0981
▁nevaren	-11.0983
▁bakterij	-11.0984
▁zavrč	-11.0984
▁ljudskem	-11.0987
biti	-11.0988
▁izvede	-11.0988
▁krepko	-11.0988
▁izboljšati	-11.0989
▁begunski	-11.0989
▁sebastian	-11.099
▁volkswagen	-11.099
▁kali	-11.099
▁oblik	-11.099
pul	-11.0991
▁99	-11.0991
▁izločil	-11.0992
▁breme	-11.0992
▁iste	-11.0993
▁zaščitni	-11.0993
▁laž	-11.0994
▁pridružili	-11.0997
▁madridu	-11.1
▁pooblaščen	-11.1
▁bistrica	-11.1
tv	-11.1001
▁zdravstvena	-11.1005
▁hišne	-11.1006
ham	-11.1006
▁umiril	-11.1007
▁današnjo	-11.1007
▁načrti	-11.1008
▁urška	-11.101
▁objavljen	-11.101
tali	-11.1011
nta	-11.1012
klon	-11.1012
▁povečali	-11.1013
▁tržni	-11.1017
tem	-11.1019
▁zasebnem	-11.1019
▁stiski	-11.1021
▁prazniki	-11.1022
▁plesni	-11.1022
▁kmetijstvo	-11.1022
▁spal	-11.1024
▁različno	-11.1027
▁izvajal	-11.1027
▁zazna	-11.1027
klop	-11.1029
tova	-11.1031
ssa	-11.1033
▁zunanjih	-11.1033
▁podpori	-11.1034
▁obleke	-11.1036
▁dokaze	-11.104
▁ročno	-11.1043
▁volan	-11.1044
▁news	-11.1045
▁vami	-11.1045
▁pozitivni	-11.1049
▁pomagalo	-11.105
▁81	-11.1051
▁prehitro	-11.1051
▁popolne	-11.1052
▁prevzeti	-11.1052
▁primanjkljaj	-11.1053
▁posvečen	-11.1053
▁88	-11.1055
▁mladega	-11.1055
▁nick	-11.1056
▁gozdu	-11.1056
▁izteka	-11.1056
▁dvignila	-11.1059
▁odgovorna	-11.1059
▁letalski	-11.1061
▁podpisala	-11.1061
šev	-11.1065
▁polet	-11.1065
▁sanj	-11.1066
▁oddal	-11.1066
▁ovadili	-11.1067
▁maksim	-11.1069
▁pozitiven	-11.1069
zar	-11.1069
▁povzročilo	-11.1071
▁dizajn	-11.1072
▁tovarne	-11.1073
▁krovu	-11.1074
▁sveži	-11.1074
▁dosežen	-11.1078
▁sproščen	-11.1078
▁izpustil	-11.1078
▁reševal	-11.108
▁obveznic	-11.1082
▁udeležbo	-11.1083
▁znižal	-11.1083
▁tujci	-11.1083
▁kmetiji	-11.1084
▁strokovna	-11.1084
▁mariborskem	-11.1086
▁multi	-11.1086
▁odločbo	-11.1087
▁razmišljal	-11.1087
tvor	-11.1087
▁ubili	-11.1088
▁sony	-11.1089
▁postavitev	-11.1091
▁86	-11.1092
▁velikost	-11.1094
▁tovor	-11.1094
▁pešce	-11.1097
▁gob	-11.1098
▁brezposelnih	-11.1101
▁dojema	-11.1103
▁mm	-11.1105
▁gradec	-11.1105
▁dviga	-11.111
▁janko	-11.1112
▁prodajajo	-11.1113
▁28-	-11.1116
▁natančneje	-11.1117
▁cal	-11.1117
▁preveri	-11.1118
▁poljski	-11.1118
▁interesu	-11.1119
▁projekti	-11.1121
▁vleče	-11.1122
▁100-	-11.1122
▁najnovejši	-11.1122
▁140	-11.1122
▁zobe	-11.1122
▁materiala	-11.1123
▁naprodaj	-11.1125
▁prazni	-11.1125
▁bova	-11.1126
▁odraslih	-11.1127
▁fotografira	-11.1133
▁sej	-11.1133
▁povišan	-11.1134
bal	-11.1135
igral	-11.1135
▁mrak	-11.1136
▁kla	-11.114
▁vzpostavitev	-11.1141
▁kupcev	-11.1141
▁kultura	-11.1142
▁sodno	-11.1142
▁men	-11.1143
▁poznam	-11.1144
tičen	-11.1145
▁spravi	-11.1145
▁namerno	-11.1148
▁člena	-11.1148
▁koprivnikar	-11.115
▁dokazali	-11.1152
▁padli	-11.1153
▁previdnost	-11.1154
▁lokacijah	-11.1158
terja	-11.1158
usa	-11.1159
▁zahodne	-11.116
▁kršitelj	-11.1161
▁iskanja	-11.1162
▁nedeljski	-11.1163
kopal	-11.1164
▁nikomur	-11.1166
▁francijo	-11.1166
▁richard	-11.1167
jna	-11.1167
▁dneve	-11.1168
▁hud	-11.1169
▁nogometaša	-11.117
▁spod	-11.1171
▁bolečino	-11.1172
šnjo	-11.1174
▁afera	-11.1174
▁potuje	-11.1175
▁guverner	-11.1177
▁kraji	-11.1177
▁zaključila	-11.1178
▁zakonca	-11.1179
lepi	-11.118
▁obsodil	-11.1181
▁bloka	-11.1183
▁spora	-11.1185
▁centralne	-11.1185
▁sobe	-11.1185
▁oglasil	-11.1186
irane	-11.1192
▁preizkuša	-11.1192
▁gigant	-11.1192
▁et	-11.1192
▁točkah	-11.1194
▁očitajo	-11.1194
▁biatlon	-11.1195
▁osebnosti	-11.1195
▁gladko	-11.1199
▁skušajo	-11.1199
▁dežela	-11.12
▁pridobi	-11.1201
▁goro	-11.1202
▁tople	-11.1202
▁dražbi	-11.1202
▁najpomembnejše	-11.1205
▁popoldan	-11.1207
čisti	-11.1208
▁irena	-11.1209
▁svetovalec	-11.1209
▁josip	-11.1209
▁spušča	-11.1211
▁zadolžen	-11.1212
▁šrot	-11.1212
▁realnost	-11.1212
▁modro	-11.1215
▁medijske	-11.1216
▁spomnim	-11.1216
▁marcel	-11.1218
▁morebitno	-11.1219
popoln	-11.122
▁davida	-11.1223
▁pogovorih	-11.1224
▁prijavil	-11.1227
▁zavarovalnice	-11.1228
▁fenomen	-11.1229
▁strategije	-11.1231
ang	-11.1233
▁japonskem	-11.1234
▁kata	-11.1234
▁turk	-11.1234
▁varovan	-11.1235
▁tvega	-11.1235
▁srečen	-11.1236
rak	-11.1236
▁vojaških	-11.124
▁hitrejši	-11.1243
▁treninga	-11.1243
▁zadaj	-11.1245
▁moskva	-11.1246
▁alen	-11.1247
žar	-11.125
rio	-11.1251
▁imunski	-11.1251
▁pesti	-11.1255
▁nastajajo	-11.1256
▁trpi	-11.1258
▁uporabljen	-11.1262
▁izključen	-11.1264
▁športnega	-11.1267
nad	-11.1268
▁kristjan	-11.1268
▁1,6	-11.1271
▁pozabiti	-11.1271
▁prof	-11.1272
▁stanovanjskih	-11.1279
rag	-11.1282
▁international	-11.1282
ale	-11.1283
▁trupla	-11.1285
sd	-11.1287
▁smuči	-11.1288
▁mislite	-11.1288
▁industrija	-11.1289
▁poslanskih	-11.129
▁element	-11.1293
vlja	-11.1293
gin	-11.1293
▁povprečne	-11.1294
▁nemškem	-11.1295
▁vzgoje	-11.1296
▁železnice	-11.1296
▁tekočine	-11.1297
▁brskalnik	-11.1299
▁pospeši	-11.1303
▁dokazi	-11.1305
▁ukrepih	-11.1307
▁prosim	-11.1307
jšega	-11.1308
▁ekran	-11.1309
▁množica	-11.1311
▁barack	-11.1312
▁pokojni	-11.1313
▁svojci	-11.1319
▁čevlje	-11.132
▁naklonjen	-11.1326
mbo	-11.1326
▁špan	-11.1326
▁počnejo	-11.1327
kaz	-11.1327
▁četrtem	-11.1327
▁slovenca	-11.1328
▁potrebovala	-11.1328
▁dokazati	-11.1329
▁struktur	-11.133
▁varovanje	-11.1333
▁močnega	-11.1334
▁redki	-11.1334
▁rojstvu	-11.1334
▁cer	-11.1335
▁vezan	-11.1336
form	-11.1336
▁podaji	-11.1338
ye	-11.1338
▁stopnji	-11.1339
▁privoščiti	-11.1341
▁nik	-11.1343
▁zdržal	-11.1344
▁klinični	-11.1345
▁solidarnost	-11.1345
▁avstrijske	-11.1347
▁odmor	-11.1349
▁športnikov	-11.135
rež	-11.135
▁bančni	-11.1351
▁bivanje	-11.1352
▁osumljeni	-11.1352
▁1,4	-11.1353
▁zmanjšati	-11.1355
▁eko	-11.1357
▁vojski	-11.1361
▁počitek	-11.1364
▁dogodkih	-11.1367
▁okrožnega	-11.1369
▁kosi	-11.1373
▁številnim	-11.1377
▁planici	-11.1377
▁žalostno	-11.138
▁zaliva	-11.138
dne	-11.1382
▁bodoče	-11.1382
ševa	-11.1384
▁zamenjali	-11.1384
▁najhujše	-11.1386
▁obvoz	-11.1388
ovali	-11.1392
▁poskrbite	-11.1393
▁podajo	-11.1395
ac	-11.1396
▁zgodovinski	-11.1396
▁italijanska	-11.1396
▁nadzira	-11.1396
▁zopet	-11.1397
irano	-11.1397
▁delavnice	-11.1398
▁dobrodelni	-11.1398
▁duha	-11.1399
▁82	-11.1399
port	-11.1404
▁uvršča	-11.1404
▁zaslonom	-11.1406
▁držijo	-11.1407
▁mineral	-11.1409
▁jezer	-11.141
▁udeležba	-11.141
rati	-11.1412
▁kozar	-11.1412
▁srede	-11.1412
▁luis	-11.1413
ktor	-11.1415
▁koles	-11.1416
▁luko	-11.1418
▁primorske	-11.1419
ladi	-11.142
rca	-11.1422
▁strošek	-11.1423
▁krogih	-11.1424
▁ledvic	-11.1424
▁spola	-11.1425
▁proizvajalec	-11.1425
▁sara	-11.1428
2018	-11.1435
dek	-11.1435
▁zavira	-11.1436
▁zaključili	-11.1436
▁prevelik	-11.1436
▁zdravili	-11.1436
▁potegoval	-11.1438
žev	-11.1438
▁zimski	-11.1439
nek	-11.144
▁pika	-11.144
▁sprožili	-11.1441
▁voznikom	-11.1441
▁dvigne	-11.1444
▁sočiju	-11.1444
graf	-11.1445
▁premagati	-11.1446
▁smeh	-11.1448
▁okna	-11.1448
▁povpraševanje	-11.1448
lahko	-11.1449
▁olimpiji	-11.1449
naš	-11.145
lila	-11.145
▁demokrati	-11.1452
▁piva	-11.1452
▁sproti	-11.1455
olog	-11.1455
▁83	-11.1457
▁trenutka	-11.1457
▁veljal	-11.1457
oče	-11.1458
▁blaga	-11.1458
kala	-11.1458
▁modna	-11.1458
▁pošlje	-11.1461
▁avtocesta	-11.1462
▁neha	-11.1463
▁kolegom	-11.1464
▁uživajo	-11.1468
▁dovoljeno	-11.1468
▁ugiba	-11.147
▁nagovoril	-11.1471
▁parka	-11.1471
▁ded	-11.1471
daj	-11.1472
▁najpomembnejši	-11.1473
▁kliniki	-11.1475
▁povzema	-11.1477
▁boston	-11.148
pan	-11.148
▁progo	-11.1481
▁23-	-11.1481
▁izplača	-11.1483
▁tine	-11.1484
▁rt	-11.1484
‘	-11.1484
▁ovire	-11.1486
▁viva	-11.1487
▁nedovoljen	-11.1487
lcem	-11.1489
▁vztrajno	-11.1489
zin	-11.1489
▁sedi	-11.149
▁znamk	-11.149
▁posamezni	-11.1491
▁poskušajo	-11.1493
▁vinograd	-11.1494
▁prikaz	-11.1497
▁lady	-11.1497
arna	-11.1497
▁nadomestila	-11.1498
▁čudi	-11.1498
▁neznanec	-11.15
▁občutke	-11.1501
▁izogiba	-11.1506
ncu	-11.1507
zla	-11.1509
▁blagovne	-11.1509
▁79	-11.151
ros	-11.1511
▁nekaterimi	-11.1512
▁domin	-11.1513
▁prihoda	-11.1514
▁pregon	-11.1515
▁izbruh	-11.1516
▁utrujenost	-11.1516
▁pričela	-11.1522
▁upravičen	-11.1522
▁predstavljal	-11.1523
▁evri	-11.1524
▁pripravljene	-11.1524
▁zagovarja	-11.1524
▁občutki	-11.1529
dia	-11.1529
šč	-11.1529
▁državama	-11.1532
▁delavec	-11.1535
▁meteorn	-11.1539
▁kadrov	-11.1539
▁nigerij	-11.1541
▁podelitvi	-11.1541
▁domžal	-11.1545
▁avtu	-11.1546
▁odločiti	-11.1547
▁humanitarne	-11.1548
▁odvzem	-11.155
▁trgovina	-11.1555
▁princa	-11.1556
ološke	-11.1557
▁antonio	-11.1558
con	-11.1559
▁človeku	-11.1561
▁jankovića	-11.1563
▁učenje	-11.1563
▁ravna	-11.1564
▁spremljamo	-11.1564
lija	-11.1566
▁programske	-11.1567
▁francosko	-11.1568
▁stiska	-11.1568
▁avgust	-11.1571
▁korenin	-11.1571
▁ugodne	-11.1572
grajen	-11.1572
▁50.000	-11.1572
▁nogah	-11.1573
▁znamo	-11.1574
95	-11.1576
▁zmogljiv	-11.1577
▁koncerta	-11.158
▁lon	-11.1581
▁analiza	-11.1582
▁povabilo	-11.1582
▁sladke	-11.1583
:11	-11.1583
▁raziskav	-11.1584
▁debeli	-11.1585
▁nizu	-11.1589
▁namenila	-11.159
ologijo	-11.1592
▁stoletju	-11.1592
▁majhni	-11.1594
▁komentirati	-11.1595
▁zvezdniki	-11.1596
▁gostilna	-11.1596
▁letošnjo	-11.16
▁nezdrav	-11.1602
▁napredovanje	-11.1603
tnega	-11.1604
▁skrbeti	-11.1605
▁kapi	-11.1607
▁jah	-11.1607
▁služil	-11.1611
▁zasedel	-11.1612
▁piran	-11.1613
-2	-11.1614
▁pravilnik	-11.1614
▁onesnažen	-11.1615
▁lah	-11.1615
▁nujna	-11.1626
▁”	-11.1627
▁kupuje	-11.1628
▁prejšnje	-11.1628
▁dobavitelj	-11.1629
▁kazalo	-11.1631
▁3:0	-11.1634
▁vsakodnevno	-11.1636
▁sodelavcev	-11.1637
▁prenovo	-11.1638
▁uredi	-11.164
▁sindrom	-11.164
▁konkretne	-11.1642
▁izpustili	-11.1642
▁električno	-11.1643
▁poslovnega	-11.1645
▁predali	-11.1645
jevem	-11.1646
▁prisotna	-11.1648
▁pogojih	-11.1649
▁protestnikov	-11.1649
▁johnson	-11.1651
▁ubit	-11.1652
▁hladilnik	-11.1656
▁sekretarja	-11.1656
beli	-11.1657
▁zakonsko	-11.1658
gle	-11.1659
▁igranje	-11.166
▁naselja	-11.1661
▁okrožnem	-11.1662
▁kartice	-11.1662
▁srečko	-11.1664
▁preš	-11.1665
▁ml	-11.1668
hal	-11.1669
▁gledališče	-11.167
▁airways	-11.167
▁živce	-11.1671
pit	-11.1673
▁zanimanja	-11.1673
▁pisarni	-11.1674
▁štefan	-11.1674
▁samodejno	-11.1675
▁domača	-11.1675
▁(0	-11.1676
▁dojk	-11.1677
▁albuma	-11.1677
▁poimenovali	-11.1678
▁odraža	-11.168
▁zastavo	-11.168
13	-11.168
▁nasprotuje	-11.1682
ava	-11.1686
▁tele	-11.1688
▁smeš	-11.169
▁sistemi	-11.169
▁nadaljnji	-11.1694
▁nekomu	-11.1694
▁italijanskega	-11.1695
▁jogurt	-11.1701
▁desne	-11.1702
dro	-11.1703
1.	-11.1704
▁očitki	-11.1705
gnal	-11.1705
▁možgani	-11.1705
▁svež	-11.1707
roš	-11.1707
▁polje	-11.1708
▁spodbudil	-11.1709
▁vzbuja	-11.171
▁hlače	-11.171
▁priporočljivo	-11.171
▁primanjkuje	-11.1711
▁nikjer	-11.1713
vad	-11.1713
▁goji	-11.1713
▁objava	-11.1716
fri	-11.1716
nco	-11.1718
▁ovir	-11.1718
▁teniški	-11.1718
▁nameni	-11.1719
▁občuti	-11.1719
▁zaznamoval	-11.1719
▁apa	-11.172
▁pritožil	-11.1721
▁govoru	-11.1721
▁večerjo	-11.1723
jeno	-11.1723
▁pripelje	-11.1724
naša	-11.1725
▁božični	-11.1725
▁znake	-11.1725
▁uniji	-11.1726
▁trak	-11.1726
▁ljubljančani	-11.1726
▁deželi	-11.1727
laž	-11.1729
▁obtožil	-11.173
lke	-11.173
▁umetnik	-11.1731
▁odstotke	-11.1731
▁najlepših	-11.1732
▁zagotavljanje	-11.1733
▁povprečni	-11.1733
▁razvil	-11.1736
▁porodu	-11.1736
▁trgovinah	-11.1736
▁zaključni	-11.1737
▁materialov	-11.1738
▁lionel	-11.1738
▁sprejeta	-11.1742
čje	-11.1742
▁nadzorniki	-11.1744
▁jagod	-11.1745
▁1,1	-11.1745
▁izbrati	-11.1745
▁2014.	-11.1745
▁ženskah	-11.1745
▁skupnih	-11.1747
▁veterinar	-11.1749
▁prineslo	-11.175
▁vili	-11.1751
▁pričel	-11.1751
▁kamni	-11.1752
▁madžarskem	-11.1753
▁desetletjih	-11.1754
▁formule	-11.1754
zaradi	-11.1758
dina	-11.1758
▁energ	-11.1758
▁obstal	-11.176
▁make	-11.1762
▁begunske	-11.1762
▁nežno	-11.1762
▁balet	-11.1763
▁visokega	-11.1767
▁varoval	-11.1767
▁najstarejši	-11.1768
▁bratov	-11.1768
38	-11.1769
▁stori	-11.177
▁vztrajal	-11.177
▁neymar	-11.1771
▁grške	-11.1774
▁tepeš	-11.1775
▁oblečen	-11.1775
▁olj	-11.1778
▁29-	-11.1778
▁inšpektorat	-11.1783
▁državljanom	-11.1786
▁razdeli	-11.1786
▁edinstven	-11.1787
▁uvod	-11.179
▁načinu	-11.1791
▁epilog	-11.1794
▁odstotki	-11.1794
▁odvija	-11.1795
▁potrebo	-11.1795
▁najpomembnejših	-11.1798
▁poletne	-11.1798
spi	-11.1801
▁potekale	-11.1801
▁odgovorno	-11.1802
▁2014,	-11.1802
▁odpraviti	-11.1803
▁poletel	-11.1805
▁domovino	-11.1806
▁opozicije	-11.181
▁nadzoru	-11.181
pove	-11.1811
▁zavarovalnica	-11.1811
▁pridržali	-11.1811
pisati	-11.1813
▁volk	-11.1814
▁sejem	-11.1815
▁avstralski	-11.1816
▁soli	-11.1817
▁voli	-11.1819
▁republika	-11.182
izmom	-11.1822
▁dvojni	-11.1823
▁ohrani	-11.1829
▁napadli	-11.183
▁polnoči	-11.1832
▁jazz	-11.1833
▁aktivira	-11.1835
▁naroda	-11.1836
vnik	-11.1837
▁gibal	-11.1838
▁avtomat	-11.1838
▁mg	-11.184
▁spletnem	-11.1841
▁poklicali	-11.1841
▁ogleda	-11.1841
▁soglasja	-11.1842
▁napadalci	-11.1843
▁natečaj	-11.1847
▁tour	-11.1847
▁poljske	-11.1848
▁zakonov	-11.1849
▁kraljevi	-11.1849
▁delil	-11.1849
▁očka	-11.1852
▁posta	-11.1854
▁vrhunsko	-11.1856
pisan	-11.1856
▁mlajše	-11.186
▁favorit	-11.186
▁nekdanjemu	-11.1861
▁iraku	-11.1863
▁organizirali	-11.1866
▁federer	-11.1867
▁obale	-11.1868
jal	-11.1868
▁trumpu	-11.1869
▁aleksandra	-11.1872
▁metoda	-11.1872
▁bara	-11.1872
▁sky	-11.1873
lla	-11.1874
▁ducati	-11.1874
▁predmete	-11.1874
rry	-11.1876
▁nasprotniki	-11.188
▁odločal	-11.1881
▁poljskem	-11.1881
▁des	-11.1882
hrani	-11.1883
▁slikovnih	-11.1884
▁določil	-11.1884
▁vučić	-11.1885
▁razvijal	-11.1885
▁občinah	-11.1886
▁bet	-11.1888
▁strategijo	-11.1888
▁razstavo	-11.1889
▁navijače	-11.1892
▁gradcu	-11.1893
▁ogledal	-11.1894
▁zadela	-11.1896
▁navdušena	-11.1898
▁toča	-11.1899
sion	-11.1899
▁jackson	-11.1899
▁slovenk	-11.19
▁upravnega	-11.19
▁blog	-11.1902
▁prost	-11.1903
▁prizorišču	-11.1904
▁naučil	-11.1905
▁trenutni	-11.1905
▁spreminjajo	-11.1905
▁šefic	-11.1906
▁resnične	-11.1907
▁obravnavi	-11.1908
▁odprte	-11.1909
▁cnn	-11.191
▁informacijo	-11.1912
▁kijev	-11.1914
▁pisanje	-11.1914
▁ponudbi	-11.1915
▁četrtka	-11.1917
▁osredotoča	-11.1917
▁nevarnih	-11.1918
28	-11.192
▁enakem	-11.1921
▁rešuje	-11.1923
▁zavzel	-11.1924
▁borzi	-11.1926
▁izpoved	-11.1928
▁črto	-11.193
47	-11.193
▁potrebi	-11.1931
▁oblikovan	-11.1936
▁im	-11.1937
▁kristal	-11.1937
▁družbenem	-11.1939
▁lmš	-11.194
eb	-11.194
▁kandidatka	-11.1942
▁dopoldan	-11.1945
▁razprave	-11.1945
nilo	-11.1946
▁prinašajo	-11.1947
ett	-11.1949
▁flo	-11.1949
▁trendi	-11.195
▁uni	-11.1954
▁laže	-11.1956
▁trav	-11.1957
▁skušala	-11.1957
▁stike	-11.1959
▁navzgor	-11.1962
▁povabili	-11.1962
03	-11.1963
▁močnejše	-11.1967
inski	-11.1967
▁team	-11.1968
▁krajevne	-11.1969
▁posvet	-11.1971
▁vroča	-11.1973
▁uporabljal	-11.1974
▁slabem	-11.1975
▁17-	-11.1976
▁balkon	-11.1979
▁postave	-11.1979
▁pivovarne	-11.1979
▁skrajša	-11.198
▁dovoli	-11.198
ero	-11.198
▁uživati	-11.1981
▁dalo	-11.1981
▁mlad	-11.1981
▁ležal	-11.1982
▁ustanovil	-11.1984
▁razmeroma	-11.1987
isa	-11.1987
▁likov	-11.1988
▁mladosti	-11.199
kako	-11.1991
bert	-11.1993
▁scott	-11.1994
▁obleki	-11.1995
▁vremenu	-11.1996
reli	-11.1997
ravno	-11.1997
ncem	-11.1999
▁vodnik	-11.2
▁priljubljenih	-11.2001
oli	-11.2001
▁odstotkih	-11.2001
▁lokalnem	-11.2002
▁spremljala	-11.2003
▁sejmu	-11.2004
des	-11.2005
▁vitamina	-11.2005
▁prehoda	-11.2006
▁vzhodne	-11.2008
▁predlogov	-11.201
▁tekmec	-11.2011
▁osrednje	-11.2011
▁ekonomist	-11.2013
▁turnejo	-11.2013
▁žur	-11.2014
▁koncev	-11.2016
▁ek	-11.2016
!!!	-11.2016
ave	-11.2018
▁oddih	-11.2018
nus	-11.2019
▁gradnji	-11.2019
čnim	-11.202
▁prispeli	-11.2024
jed	-11.2025
▁potrjuje	-11.2025
jenju	-11.2025
▁zmanjšali	-11.2028
▁group	-11.2029
▁izzive	-11.2031
▁oskrbi	-11.2036
ub	-11.2037
▁članom	-11.2037
rbi	-11.204
▁dvorane	-11.204
▁nasproti	-11.2042
▁vstopu	-11.2043
▁spoštovati	-11.2044
▁trinajst	-11.2044
▁registrira	-11.2045
▁ubranil	-11.2048
▁05	-11.205
▁kontrolo	-11.2051
36	-11.2053
▁daroval	-11.2053
▁vidite	-11.2054
▁užival	-11.2057
▁minimalno	-11.2058
▁tekmovalcev	-11.2058
▁zlomil	-11.206
▁jezikov	-11.2061
▁nadal	-11.2062
▁mrtvi	-11.2063
▁uvodni	-11.2063
▁narok	-11.2064
▁tveganj	-11.2064
▁tretjino	-11.2064
▁izpostavili	-11.2065
▁nosijo	-11.2066
▁streljanje	-11.2067
plu	-11.2067
▁zorana	-11.2068
▁32-	-11.2071
▁zdravniško	-11.2072
▁nekdanjim	-11.2073
▁prizadel	-11.2074
▁tablet	-11.2075
▁topli	-11.2078
▁skupščini	-11.2078
arso	-11.208
eti	-11.2081
ljeva	-11.2082
▁virusom	-11.2082
▁neodvisnost	-11.2083
▁ljubitelj	-11.2084
▁opazila	-11.2085
▁rene	-11.2086
▁koprski	-11.2087
▁namestnik	-11.209
▁znižala	-11.2091
▁plačilni	-11.2092
▁maso	-11.2094
▁odprtje	-11.2095
▁razvili	-11.2095
▁zelena	-11.2098
▁študenti	-11.2099
▁desetletje	-11.2099
▁tan	-11.21
volj	-11.2101
▁evropskimi	-11.2101
real	-11.2102
34	-11.2103
▁dogajanju	-11.2104
▁prične	-11.2106
▁čip	-11.2107
▁plezal	-11.2109
▁zapravil	-11.2109
▁pridno	-11.211
▁časi	-11.2111
▁mariborčani	-11.2112
▁slovencem	-11.2113
▁sloves	-11.2113
▁šarca	-11.2114
▁osamljen	-11.2115
▁žoga	-11.2115
▁kandidiral	-11.2116
vljen	-11.2116
▁prisotni	-11.2116
▁state	-11.2117
▁društev	-11.2119
▁jutra	-11.212
▁bernard	-11.2125
▁obarvan	-11.2125
▁podražil	-11.2126
▁zakonitosti	-11.2129
▁šk	-11.213
▁dovolil	-11.2131
▁argument	-11.2131
▁družbene	-11.2133
▁beograd	-11.2134
▁malenkost	-11.2134
rg	-11.2135
zan	-11.2135
▁raziskavo	-11.2136
▁sekundo	-11.2137
▁zaključen	-11.2137
▁portorož	-11.2138
rke	-11.2138
dij	-11.214
▁kakih	-11.214
tike	-11.2142
▁fizične	-11.2144
rci	-11.2144
▁kva	-11.2144
▁borijo	-11.2145
▁marec	-11.2146
▁določi	-11.2146
stor	-11.2147
▁razpravi	-11.2147
▁vdih	-11.2148
▁izenačil	-11.2148
▁zmaguj	-11.215
▁slej	-11.2152
▁prejme	-11.2152
sy	-11.2152
way	-11.2152
▁natanko	-11.2153
▁sceni	-11.2154
▁okužb	-11.2155
▁pestro	-11.2155
vka	-11.2156
▁michel	-11.2156
▁denarne	-11.2158
▁prihodnjem	-11.2158
▁unijo	-11.2159
▁toži	-11.216
▁dvorana	-11.2162
▁pije	-11.2163
▁kupi	-11.2164
vila	-11.2165
▁izkušeni	-11.2165
▁izvedbe	-11.2166
▁poostren	-11.2166
▁oblikovanju	-11.2167
▁španskega	-11.2168
čijo	-11.2169
▁juan	-11.2171
▁krivic	-11.2171
▁vlagatelji	-11.2173
▁tragično	-11.2175
▁diha	-11.2175
▁instrument	-11.2177
peti	-11.2179
▁rečemo	-11.218
▁menjava	-11.2181
▁barcelono	-11.2182
▁tadej	-11.2183
▁konferenca	-11.2183
nn	-11.2187
▁predsedniške	-11.2187
▁kupec	-11.2189
▁končne	-11.2189
▁zdrsnil	-11.219
▁zadev	-11.2191
čevanje	-11.2192
▁razloži	-11.2193
▁zahtevno	-11.2193
▁plačala	-11.2193
▁jasne	-11.2194
▁ohladi	-11.2197
vc	-11.2199
▁napravi	-11.22
ološko	-11.22
▁preprosta	-11.22
▁glasovanju	-11.2201
▁obstoječe	-11.2201
▁zmerno	-11.2204
23	-11.2205
▁spremembi	-11.2205
▁islamski	-11.2205
▁oboje	-11.2207
▁kršil	-11.2207
▁vstopili	-11.2208
▁štefanec	-11.2209
▁ljudski	-11.2209
ziv	-11.2209
▁vaja	-11.221
▁morata	-11.2212
▁putina	-11.2214
▁avstralije	-11.2215
▁upanja	-11.2216
▁peljal	-11.2216
▁valut	-11.2217
▁komunikacije	-11.2219
▁ugotovitev	-11.2219
▁vstopnice	-11.222
▁will	-11.2221
▁mudi	-11.2222
▁podelili	-11.2222
love	-11.2222
▁sunki	-11.2224
▁arma	-11.2224
▁današnjega	-11.2224
26	-11.2226
▁vprašanju	-11.2226
▁preselila	-11.2226
▁mamil	-11.2229
▁povedli	-11.2229
mas	-11.223
▁vlaknin	-11.2232
▁oliv	-11.2233
cijski	-11.2234
▁skriti	-11.2234
▁aljaž	-11.2235
tvam	-11.2235
▁kakšnem	-11.2235
▁posvetil	-11.2236
▁sodne	-11.2236
▁sedežu	-11.2237
jana	-11.2238
▁kadarkoli	-11.2239
▁usklajen	-11.2242
▁mladinski	-11.2244
▁igorja	-11.2245
▁dodatki	-11.2247
▁izrazila	-11.2247
▁strelom	-11.2248
▁izrazili	-11.2248
▁interese	-11.2249
▁resnice	-11.225
▁bed	-11.225
▁očala	-11.2251
▁udeležilo	-11.2253
▁rez	-11.2253
▁dobitnik	-11.2254
rice	-11.2257
▁paradižnik	-11.2258
tke	-11.2259
enj	-11.2259
ovnik	-11.226
▁odrezal	-11.226
▁brexitu	-11.2264
▁početje	-11.2266
▁rac	-11.2266
▁zapustili	-11.2267
▁srečali	-11.2269
ional	-11.2269
▁krši	-11.2269
▁zvest	-11.227
▁tanko	-11.227
▁poškodba	-11.2271
▁zvezne	-11.2273
▁stotink	-11.2273
▁sneži	-11.2273
▁pojavile	-11.2274
▁združeni	-11.2275
▁ujela	-11.2275
▁bale	-11.2276
▁kremo	-11.2279
▁35-	-11.2279
▁potrditi	-11.228
▁dža	-11.228
▁ante	-11.228
ujoč	-11.228
▁naselje	-11.2281
▁https	-11.2281
▁hokej	-11.2281
▁polnil	-11.2282
▁2015,	-11.2284
▁poražen	-11.2286
▁gledališča	-11.2286
▁special	-11.2287
▁tehničnih	-11.2289
▁neprimerno	-11.2291
▁nadzornik	-11.2292
▁sporne	-11.2295
▁odboru	-11.2295
▁številki	-11.2296
▁izgovor	-11.2297
▁starem	-11.2299
▁četrtfinalu	-11.2299
▁muzeju	-11.2299
▁gornji	-11.23
▁črk	-11.23
▁kamer	-11.2303
▁trebuh	-11.2303
▁greš	-11.2304
▁zapletov	-11.2306
▁zgradb	-11.2307
▁postelj	-11.2307
▁poraba	-11.2307
▁moril	-11.2307
▁ponudi	-11.2309
▁brezplačne	-11.231
▁dokumentacijo	-11.2311
▁zanimajo	-11.2311
▁1990	-11.2311
▁spolnega	-11.2313
.....	-11.2315
▁prepovedano	-11.2316
sal	-11.2316
▁zmanjšala	-11.2317
▁roba	-11.2319
▁celovito	-11.2319
▁obrača	-11.2325
▁jug	-11.2327
▁nakupa	-11.2327
▁izrekel	-11.2328
▁fantov	-11.2331
▁trem	-11.2332
▁ultra	-11.2334
▁svetil	-11.2335
treb	-11.2335
▁darja	-11.2338
bež	-11.234
▁avta	-11.2342
▁ločitev	-11.2343
▁zanimivih	-11.2343
▁reforma	-11.2343
▁načrtov	-11.2343
▁tožilstvu	-11.2344
▁stečaju	-11.2344
▁predlagajo	-11.2344
58	-11.2345
▁original	-11.2347
▁odsek	-11.2347
▁zaželen	-11.2349
▁klubi	-11.2351
▁osebnim	-11.2351
▁mimogrede	-11.2352
▁resor	-11.2352
▁namenjene	-11.2353
▁grožnja	-11.2357
▁najbližji	-11.2357
▁kilogram	-11.2357
▁omenjenem	-11.2359
vedno	-11.236
▁preiskav	-11.236
▁razpisu	-11.236
▁žrtvami	-11.2361
▁energetske	-11.2363
▁poznate	-11.2365
▁spominu	-11.2365
▁my	-11.2367
▁bogata	-11.2369
▁ugotovi	-11.2372
▁tehnike	-11.2373
▁helena	-11.2373
▁vplivala	-11.2374
▁mladimi	-11.2375
yn	-11.2377
▁odločanje	-11.2377
▁merklova	-11.2382
▁pogovarja	-11.2385
ä	-11.2386
▁1999	-11.2387
▁vršič	-11.2387
▁cameron	-11.2387
▁podaljša	-11.2388
▁pripisal	-11.2389
▁lev	-11.239
▁dobav	-11.2391
▁enaki	-11.2392
▁prostih	-11.2393
▁soboti	-11.2395
▁vremenske	-11.2396
▁ekonomsko	-11.2398
▁ip	-11.2399
▁vdor	-11.2399
▁prispelo	-11.24
▁televizijskih	-11.24
▁nimate	-11.2401
zira	-11.2401
▁snema	-11.2402
bran	-11.2404
▁petkrat	-11.2404
▁spoštovanja	-11.2407
▁nastopov	-11.2407
▁mestno	-11.2408
▁pokriva	-11.2409
▁odpovedali	-11.2409
▁fbi	-11.241
▁obnašanje	-11.241
▁arbitražne	-11.2411
▁športnik	-11.2412
▁spot	-11.2415
▁sr	-11.2416
▁est	-11.2418
enja	-11.2418
▁lastnega	-11.2418
din	-11.242
▁strinjajo	-11.242
▁takšnem	-11.2422
jaz	-11.2422
▁načeloma	-11.2423
▁primeri	-11.2423
▁pametna	-11.2424
▁ameriškem	-11.2424
▁zdravnikom	-11.2427
▁vn	-11.2427
▁razpoloženje	-11.2427
▁streljanju	-11.2428
▁pristojno	-11.2428
lete	-11.2429
▁profesional	-11.243
▁darila	-11.243
▁treniral	-11.2431
lnega	-11.2432
▁obalo	-11.2435
▁otrocih	-11.2439
▁dodatni	-11.2439
▁global	-11.244
▁preveriti	-11.2441
▁razdalje	-11.2441
▁brežice	-11.2443
▁satelit	-11.2446
▁90.	-11.2446
▁čo	-11.2446
▁terjal	-11.2447
liti	-11.2449
▁klin	-11.2451
▁vključi	-11.2452
nčič	-11.2453
▁zbežal	-11.2454
janje	-11.2456
▁sumi	-11.2456
▁6:4	-11.2457
▁plazov	-11.2457
▁klan	-11.2458
▁obnovi	-11.2458
▁povezoval	-11.2461
▁imenovane	-11.2461
▁rot	-11.2462
▁cipras	-11.2462
loži	-11.2464
▁cele	-11.2467
▁seksu	-11.2468
▁okriljem	-11.2469
▁travnik	-11.247
▁plati	-11.2471
37	-11.2471
▁dobite	-11.2475
42	-11.2477
▁prisoten	-11.2478
▁zapornik	-11.2479
▁razrešitev	-11.248
bru	-11.2484
▁varni	-11.2489
▁handanović	-11.2489
▁vlaga	-11.2489
▁turistično	-11.2492
gg	-11.2493
▁najhuje	-11.2493
uri	-11.2493
▁cilji	-11.2493
▁stopili	-11.2494
▁blo	-11.2495
39	-11.2496
▁zaključek	-11.2496
▁oš	-11.2497
▁dama	-11.2498
www	-11.2499
▁laži	-11.2501
▁sirski	-11.2501
▁poškodovanega	-11.2503
▁ble	-11.2503
▁povišal	-11.2504
▁uradu	-11.2504
▁lokacije	-11.2506
▁razmišljanje	-11.2506
▁podaljšku	-11.2507
▁odkrila	-11.2508
▁izstopil	-11.2509
▁zbrani	-11.2509
▁zgradili	-11.2509
joča	-11.2509
▁pozdrav	-11.251
▁nominiran	-11.2511
▁namenjeni	-11.2511
▁predel	-11.2511
▁prijazni	-11.2512
▁dogovarja	-11.2513
▁legenda	-11.2515
▁sklical	-11.2517
▁katalonski	-11.2518
▁nokia	-11.2518
▁zasebne	-11.2521
▁balon	-11.2522
▁preiskuje	-11.2527
▁podaljšanje	-11.2529
▁kijevu	-11.2529
vet	-11.253
▁hišni	-11.253
▁spomnite	-11.2531
▁janukovič	-11.2531
▁kbm	-11.2533
▁nenad	-11.2534
litrski	-11.2537
▁snegu	-11.2538
▁osnovna	-11.2539
▁ug	-11.254
rman	-11.254
▁umetne	-11.2542
▁zbiral	-11.2544
▁uvrstitve	-11.2544
▁filozof	-11.2545
▁hčer	-11.2546
▁japonska	-11.2547
▁kranjske	-11.2548
▁odzivi	-11.2549
▁izšla	-11.2549
▁pravem	-11.255
▁občutka	-11.2552
▁nikdar	-11.2552
▁all	-11.2554
▁zaslužijo	-11.2554
▁odre	-11.2554
▁dodobra	-11.2554
nis	-11.2554
▁mandatarja	-11.2555
▁prireditvi	-11.2556
▁programsko	-11.2557
▁pogasili	-11.2557
▁vesti	-11.2558
stran	-11.2563
▁bolnika	-11.2563
▁dosegljiv	-11.2563
▁ponudb	-11.2565
▁zaplet	-11.2567
▁vezist	-11.2567
▁vohun	-11.2569
▁mestnih	-11.257
/1	-11.2573
▁glasu	-11.2574
▁pia	-11.2574
▁vsakemu	-11.2575
▁nizki	-11.2575
▁najnovejše	-11.2576
▁prev	-11.2576
▁stroke	-11.2578
rba	-11.2579
▁ustavlja	-11.2581
▁čebelar	-11.2581
▁reko	-11.2582
▁izplačilo	-11.2582
▁obišče	-11.2582
▁švedski	-11.2583
poli	-11.2583
3)	-11.2583
▁zaseda	-11.2584
rde	-11.2585
račun	-11.2585
▁jedilnik	-11.2586
▁sive	-11.2588
▁sklop	-11.2589
gh	-11.2592
▁(5	-11.2592
▁33-	-11.2592
▁zaskrbljenost	-11.2593
▁murski	-11.2593
▁izvajanja	-11.2594
▁snemanja	-11.2595
▁krav	-11.2595
▁verjetnosti	-11.2596
▁boja	-11.2596
▁jezeru	-11.2597
▁matt	-11.26
▁mike	-11.26
!'	-11.2602
▁ušes	-11.2603
▁zadetkov	-11.2606
▁porast	-11.2609
▁območij	-11.261
▁divji	-11.261
▁6:3	-11.2613
▁čem	-11.2613
▁vrgel	-11.2618
▁luna	-11.2618
▁kovin	-11.2618
▁veselil	-11.2619
▁privošči	-11.262
▁oktober	-11.2621
▁stika	-11.2623
▁smuk	-11.2623
▁izraelski	-11.2626
▁nižinah	-11.2626
▁paris	-11.2626
▁ib	-11.2626
▁vrtec	-11.2626
▁uradne	-11.2629
▁elektronskih	-11.2631
▁velenju	-11.2632
▁poskusu	-11.2635
▁prodala	-11.2635
▁riu	-11.2635
▁projektom	-11.2635
▁zakonske	-11.2637
▁izvesti	-11.2638
▁zabavno	-11.264
▁vadi	-11.264
▁facebooka	-11.2641
▁ču	-11.2642
▁čakalne	-11.2643
▁slik	-11.2643
▁vzpostaviti	-11.2644
▁spolni	-11.2645
▁sport	-11.2647
▁brexita	-11.2647
3.	-11.2647
iranih	-11.2648
▁dodatkov	-11.2648
▁okrepi	-11.2648
▁vozniku	-11.2649
▁dokazano	-11.2652
▁pest	-11.2653
▁proizvajalca	-11.2653
▁zamud	-11.2654
▁gruškovje	-11.2656
istična	-11.2659
▁preizkušnji	-11.2659
▁usodno	-11.2659
▁zanimivi	-11.266
gnil	-11.2662
▁najin	-11.2664
▁medijski	-11.2665
▁ministrom	-11.2666
fil	-11.2667
▁kron	-11.267
ljenih	-11.2671
▁kritika	-11.2672
lah	-11.2675
▁zima	-11.2677
▁obljub	-11.2681
bin	-11.2682
nč	-11.2683
▁telefonsko	-11.2683
▁mesečni	-11.2683
▁očetu	-11.2684
▁letalom	-11.2684
▁sanacijo	-11.2685
mba	-11.2688
▁vidmar	-11.2688
▁simptomi	-11.2688
▁motorjem	-11.2693
▁razstave	-11.2694
▁poškodbi	-11.2696
▁nastanitveni	-11.2697
▁kanclerka	-11.2697
vze	-11.2699
▁spremenjen	-11.27
▁obolenj	-11.2701
49	-11.2703
▁kw	-11.2703
▁sopotnik	-11.2703
▁veselja	-11.2706
8)	-11.2706
▁postale	-11.2707
▁tumor	-11.2708
▁lara	-11.2708
rav	-11.2709
▁karitas	-11.2709
▁sposobna	-11.2712
▁ag	-11.2713
▁žnidar	-11.2714
pec	-11.2714
▁vplivalo	-11.2715
▁franci	-11.2716
▁vinales	-11.2717
smrt	-11.2717
▁osnutek	-11.2719
▁vlaki	-11.2723
▁štor	-11.2724
▁zasedbo	-11.2725
▁telekomunikacij	-11.2725
▁zmanjšal	-11.2725
▁jasmin	-11.2726
▁pisan	-11.2728
▁sun	-11.2729
▁egipt	-11.2729
▁prenosa	-11.2731
cal	-11.2732
nejšo	-11.2732
kati	-11.2733
▁nekdanjih	-11.2734
▁jed	-11.2734
▁glasovalo	-11.2737
▁vrhovni	-11.2737
raš	-11.2738
▁realno	-11.2739
▁čustev	-11.274
▁strogo	-11.274
▁probleme	-11.2742
▁sar	-11.2743
▁računalnika	-11.2743
ovec	-11.2744
▁krimu	-11.2746
▁hol	-11.2747
▁palm	-11.2747
▁monta	-11.2748
▁drage	-11.2748
▁javnim	-11.2749
šel	-11.2749
▁predlogom	-11.275
▁nekdanjo	-11.2751
▁spremembah	-11.2752
▁krema	-11.2754
sija	-11.2754
nel	-11.2756
▁imenovan	-11.2757
▁ponovi	-11.2757
▁spomina	-11.2757
▁napačne	-11.2758
▁prepovedane	-11.2758
▁obdela	-11.2758
▁jutranjih	-11.2759
▁neuspešno	-11.276
▁opazuje	-11.276
▁dokazala	-11.2761
▁kolajno	-11.2761
▁gla	-11.2762
▁phoenix	-11.2762
ther	-11.2762
0)	-11.2762
▁zbornici	-11.2762
▁strmoglavilo	-11.2764
▁kapacitete	-11.2766
ney	-11.2768
▁izvor	-11.2769
čnosti	-11.2769
▁človeško	-11.2769
▁srcem	-11.277
▁svinj	-11.2771
▁deseti	-11.2771
▁damir	-11.2772
▁zasebnega	-11.2773
▁obratno	-11.2775
▁osebam	-11.2776
▁gli	-11.2777
glede	-11.2777
▁note	-11.2778
cent	-11.2778
▁debat	-11.2778
▁centre	-11.278
▁kanalu	-11.278
istov	-11.2781
▁trgovci	-11.2782
▁britanec	-11.2782
▁spre	-11.2784
▁intel	-11.2784
inger	-11.2785
ford	-11.2787
▁spanjem	-11.2788
▁vinjet	-11.2789
▁damijan	-11.279
▁pijačo	-11.2791
irana	-11.2795
▁divje	-11.2797
▁dragonja	-11.2798
▁ustavne	-11.2801
▁senator	-11.2801
▁izdelan	-11.2803
lik	-11.2803
▁16-	-11.2805
▁šentilju	-11.2805
▁imun	-11.2807
sse	-11.2807
▁ponarejen	-11.2808
▁piškot	-11.2809
▁čut	-11.2811
▁ukvarjati	-11.2811
▁glasbeniki	-11.2811
▁višjega	-11.2813
tić	-11.2813
▁šah	-11.2817
▁znamenje	-11.2818
▁porabe	-11.2818
▁usmeri	-11.2818
▁španska	-11.2819
▁natalija	-11.2819
▁premore	-11.2823
▁izpolni	-11.2824
▁kritičen	-11.2827
▁priznanja	-11.2828
▁leva	-11.2829
▁angelesu	-11.2829
▁poljska	-11.2829
▁googlov	-11.283
▁vratih	-11.2831
▁samostojne	-11.2831
57	-11.2831
▁farmacevt	-11.2832
▁čestitke	-11.2833
▁večeru	-11.2833
▁domove	-11.2834
▁davčno	-11.2834
▁okoliščinah	-11.2835
▁plakat	-11.2837
▁dosežke	-11.2838
▁bencina	-11.284
▁seznama	-11.2841
▁soprog	-11.2841
▁predvidena	-11.2842
▁mladoletni	-11.2844
▁majico	-11.2845
▁letnik	-11.2845
letnem	-11.2846
▁boksar	-11.2847
▁odvijal	-11.2848
▁trud	-11.2849
▁pisma	-11.2849
▁izjema	-11.285
plač	-11.285
▁pokoj	-11.285
▁neuspeh	-11.2851
▁danijel	-11.2851
▁vredni	-11.2852
▁konstrukcij	-11.2852
▁učinkovite	-11.2853
▁kazniva	-11.2853
▁umetni	-11.2853
mana	-11.2854
▁opozicija	-11.2854
▁ustvari	-11.2856
ščini	-11.2856
sson	-11.2858
▁posnet	-11.2858
▁bližnjem	-11.2858
▁sijaj	-11.2859
▁nizka	-11.286
▁franca	-11.2864
▁dodatnega	-11.2864
▁nasvete	-11.2864
▁žrtvam	-11.2865
▁yo	-11.2865
▁eksploziji	-11.2867
▁stanovanjsko	-11.2868
▁izvedela	-11.2869
cka	-11.2869
tch	-11.2872
▁premiera	-11.2872
▁temperaturo	-11.2872
taj	-11.2874
▁modnih	-11.2875
▁psg	-11.2876
▁objekte	-11.2876
▁strankam	-11.2876
▁zadržal	-11.2877
▁nizozemske	-11.2879
▁„	-11.288
▁87	-11.2882
▁hitra	-11.2883
▁komik	-11.2883
jno	-11.2885
▁zaostanka	-11.2886
▁2013,	-11.2888
▁mobilno	-11.289
tol	-11.289
▁fištravec	-11.2892
▁dogajajo	-11.2893
▁zakonski	-11.2894
rskega	-11.2895
▁možgane	-11.2896
▁odnesli	-11.2897
▁bohinj	-11.2898
▁pozitivna	-11.2899
▁modelov	-11.2899
▁houston	-11.2903
▁obožuje	-11.2903
▁oborožen	-11.2905
▁poslanski	-11.2906
dnevno	-11.2906
▁pesnik	-11.2906
▁orodja	-11.2907
▁oboževalce	-11.2907
kl	-11.2909
tura	-11.291
▁sestavljajo	-11.2911
▁obračunu	-11.2911
▁koraku	-11.2911
▁3:1	-11.2912
▁obsodili	-11.2912
vci	-11.2912
▁svetlo	-11.2913
▁krat	-11.2913
▁učinkovita	-11.2914
▁gledajo	-11.2914
▁fantom	-11.2915
▁psiho	-11.2916
▁nizozemski	-11.2916
▁razumeli	-11.2919
▁tjaša	-11.292
▁družinskega	-11.2921
▁bro	-11.2921
▁nemoteno	-11.2921
▁življenjskih	-11.2922
▁holdinga	-11.2922
▁trpel	-11.2923
▁vire	-11.2923
▁letali	-11.2923
▁nivoju	-11.2924
▁poskusi	-11.2924
▁gorenja	-11.2924
▁char	-11.2924
▁pravkar	-11.2925
▁žaljiv	-11.2925
▁cli	-11.2926
▁generacijo	-11.2926
▁pečen	-11.2926
jskega	-11.2931
▁soproga	-11.2933
▁majhnih	-11.2934
▁celjani	-11.2934
▁green	-11.2935
▁stopal	-11.2936
▁dodajte	-11.2936
mali	-11.2936
▁zagovor	-11.294
▁rokami	-11.2941
▁konj	-11.2943
▁žoge	-11.2943
▁odstraniti	-11.2944
▁prostori	-11.2946
▁pokrajin	-11.2948
▁izvora	-11.2949
▁zbrane	-11.295
▁kaš	-11.295
▁demokrat	-11.2953
▁dopusta	-11.2955
▁vod	-11.2955
▁upoštevali	-11.2956
▁komunicira	-11.2958
jevanje	-11.2959
▁turističnih	-11.2961
▁obvezna	-11.2963
rić	-11.2964
▁loti	-11.2964
▁električnih	-11.2965
▁spomnila	-11.2965
▁voditeljev	-11.2965
ščen	-11.2967
▁poslanstvo	-11.2968
▁finančnem	-11.2971
▁gosto	-11.2972
▁otoka	-11.2976
▁moško	-11.2979
▁verjamemo	-11.2982
▁izognil	-11.2983
▁zlorabo	-11.2984
▁mourinho	-11.2987
▁lepše	-11.2988
▁priporočamo	-11.2988
▁bližnje	-11.2988
▁dotika	-11.2989
▁severina	-11.2989
▁sodnih	-11.2989
▁umoril	-11.2989
▁hčerke	-11.299
▁razlikuje	-11.299
▁160	-11.299
▁gibanju	-11.2991
▁udarila	-11.2992
▁posojilo	-11.2993
▁regionalne	-11.2993
▁obrne	-11.2993
▁čebel	-11.2995
▁zore	-11.2996
▁1998	-11.2996
▁tedensko	-11.2997
▁posledicami	-11.2999
▁parkiran	-11.3
▁označili	-11.3001
▁sever	-11.3002
▁razgled	-11.3003
▁brown	-11.3003
▁presegla	-11.3003
▁naslednjega	-11.3005
▁indonezij	-11.3005
▁kroži	-11.3007
▁raket	-11.3008
▁tovornjaka	-11.3008
▁naučiti	-11.3008
▁preuči	-11.3009
▁promocijsko	-11.301
▁rektor	-11.3011
smo	-11.3012
▁nudili	-11.3014
▁knjiž	-11.3016
▁poslavlja	-11.3016
▁integracij	-11.3019
▁kabin	-11.302
▁sosednje	-11.3021
▁ulico	-11.3022
nny	-11.3023
▁jama	-11.3025
▁albert	-11.3027
▁afriki	-11.3027
▁01	-11.3027
▁dosedanje	-11.303
▁prekinili	-11.303
▁ribi	-11.3031
▁varna	-11.3031
▁utrujen	-11.3033
▁bogat	-11.3035
▁zmagah	-11.3035
▁trojk	-11.3035
▁poškodbo	-11.3035
ola	-11.3035
▁ranil	-11.3037
▁kozarec	-11.3038
▁spanja	-11.3039
▁kings	-11.3041
▁obremenjuje	-11.3042
melj	-11.3044
▁pripomore	-11.3045
▁kritično	-11.3045
jočega	-11.3045
▁fides	-11.3046
▁obdržal	-11.3047
ret	-11.3047
cep	-11.3048
▁čakati	-11.3049
▁zaprtje	-11.305
▁turneje	-11.305
letnici	-11.3051
▁podporniki	-11.3052
41	-11.3052
▁bolnik	-11.3053
▁dimenzij	-11.3054
▁ul	-11.3054
▁zavaroval	-11.3055
▁kratke	-11.3055
▁učenci	-11.3055
▁bes	-11.3058
▁najslabše	-11.3059
▁četrtfinale	-11.3059
burg	-11.3061
▁pretres	-11.3061
▁oznako	-11.3063
▁posadke	-11.3065
▁prinesli	-11.3067
▁oživlja	-11.3067
▁razdeljen	-11.3067
▁režiserja	-11.3068
▁ustvarjajo	-11.307
▁okrevanje	-11.3071
▁konferenco	-11.3073
vem	-11.3073
▁naučili	-11.3073
voli	-11.3074
▁obresti	-11.3077
▁kampanji	-11.3077
▁čiste	-11.3079
ljivih	-11.308
▁danilo	-11.3081
▁vajeni	-11.3082
▁kvadratni	-11.3082
▁odločijo	-11.3082
▁predpisov	-11.3087
▁gon	-11.3087
▁borili	-11.3087
▁splača	-11.3087
▁dihanje	-11.3087
rijo	-11.3088
▁plačuje	-11.3089
▁rokomet	-11.3089
▁nepričakovano	-11.3089
▁uradnega	-11.3091
▁zračni	-11.3092
▁živa	-11.3092
▁tekmovanjih	-11.3092
▁velikimi	-11.3093
▁srečne	-11.3095
▁umetno	-11.3097
▁slednja	-11.3099
▁pokojnin	-11.31
▁spomnili	-11.3101
▁kadil	-11.3105
▁sirijo	-11.3105
▁charlie	-11.3105
▁prazno	-11.3108
▁povozil	-11.311
▁razbil	-11.3111
▁takratni	-11.3111
zal	-11.3111
▁poskusa	-11.3111
▁rumeni	-11.3113
▁sedanje	-11.3114
.500	-11.3115
▁pranja	-11.3116
▁kandidira	-11.3116
▁gorski	-11.3118
▁prepovedan	-11.3119
▁polčas	-11.312
▁dotaknil	-11.3121
▁snov	-11.3121
▁duše	-11.3121
▁alba	-11.3121
▁povratni	-11.3122
▁metrih	-11.3123
▁poslušal	-11.3124
▁win	-11.3124
▁krima	-11.3124
▁filmih	-11.3125
▁beguncem	-11.3126
▁ugodno	-11.3128
▁bend	-11.3132
dovolj	-11.3132
2)	-11.3137
65	-11.3138
▁švedskem	-11.3139
▁premaknil	-11.3139
▁komentator	-11.314
▁dejavnikov	-11.314
▁operacijskega	-11.3141
▁prijazno	-11.3142
▁razšla	-11.3142
▁naložba	-11.3142
▁avstrijci	-11.3143
tti	-11.3143
▁šesto	-11.3147
▁elektrarn	-11.3151
vede	-11.3151
zme	-11.3153
▁uber	-11.3153
▁urejen	-11.3153
▁akumulator	-11.3155
▁podpisan	-11.3156
▁skrajneži	-11.3159
urno	-11.3159
▁premaga	-11.3159
▁krki	-11.316
▁matoz	-11.3163
▁dobrodelne	-11.3163
▁balkanu	-11.3164
▁italijani	-11.3164
jeni	-11.3165
▁dovolili	-11.3166
hor	-11.317
▁roger	-11.317
▁enotni	-11.3173
▁vodni	-11.3173
čevati	-11.3174
▁nalaga	-11.3174
▁tehta	-11.3175
▁pritegnil	-11.3177
nisem	-11.3177
▁namenjeno	-11.3177
▁street	-11.3178
▁spustil	-11.3178
▁stavba	-11.3179
▁mam	-11.3179
▁poplavah	-11.3179
▁kampanja	-11.3179
▁ostalimi	-11.3183
▁mail	-11.3183
▁izvira	-11.3184
▁enoti	-11.3184
▁mariborsko	-11.3186
43	-11.3187
▁pozabi	-11.3187
▁pohorje	-11.3189
▁pritrdil	-11.3189
▁rej	-11.319
▁pravna	-11.3191
▁odvisni	-11.3191
▁središča	-11.3191
▁terorist	-11.3192
▁tovrstno	-11.3193
▁povečati	-11.3193
▁želiš	-11.3194
▁klasične	-11.3199
▁fox	-11.3199
▁barbar	-11.3199
▁dolenj	-11.32
▁ogrozil	-11.3201
▁odtujil	-11.3203
▁vajo	-11.3204
▁benjamin	-11.3205
▁zagotovljen	-11.3205
▁obetajo	-11.3206
▁cepljenje	-11.3206
čica	-11.3209
▁poplavlja	-11.3212
▁negotov	-11.3213
▁rut	-11.3214
▁soncu	-11.3214
▁odgovarjal	-11.3215
▁suši	-11.3216
▁3,5	-11.3216
▁atlet	-11.3216
▁zahović	-11.3216
ičnega	-11.3218
▁razstavi	-11.3219
▁portret	-11.3219
▁zbolel	-11.322
▁prestolnico	-11.3221
▁2017.	-11.3221
▁rojeni	-11.3221
▁ugnal	-11.3221
▁potočnik	-11.3222
▁oprav	-11.3224
▁velikonja	-11.3224
pisano	-11.3225
▁možen	-11.3226
▁zaupni	-11.3226
▁ego	-11.3226
▁omogoči	-11.3228
lega	-11.3228
▁prijavi	-11.3231
▁rimu	-11.3234
▁omeji	-11.3239
▁profesionalni	-11.3239
▁massi	-11.3239
nšek	-11.324
▁sub	-11.3241
▁zdravega	-11.3241
▁02	-11.3243
▁ključnega	-11.3243
qui	-11.3244
/2	-11.3244
▁obroč	-11.3245
85	-11.3246
▁14-	-11.3247
▁jedrski	-11.3247
▁posnetka	-11.3247
▁strokovnih	-11.3248
▁sestro	-11.3249
čin	-11.325
▁madrida	-11.325
▁kongresa	-11.3252
▁pozdravil	-11.3253
▁31-	-11.3255
▁zime	-11.3255
▁rdečih	-11.3255
▁dvignili	-11.3255
▁šali	-11.3256
▁ponesrečen	-11.3259
▁tehnologij	-11.3259
▁smuka	-11.3261
6.000	-11.3263
▁pohorju	-11.3263
▁doživi	-11.3263
▁izgubiti	-11.3264
▁06	-11.3265
▁odgovorov	-11.3265
▁suarez	-11.3266
▁hej	-11.3267
▁zvezdnice	-11.3269
▁graditi	-11.3271
▁pomanjkljivosti	-11.3272
dali	-11.3273
reza	-11.3273
▁hodil	-11.3273
▁jezero	-11.3273
▁cap	-11.3274
▁avtomobilski	-11.3274
ring	-11.3275
88	-11.3276
▁pooblastil	-11.3277
▁možnih	-11.3277
▁poniž	-11.3277
▁uspeva	-11.3279
▁nepredvidljiv	-11.328
▁volilno	-11.3281
▁poskusil	-11.3282
▁rednega	-11.3282
▁dobilo	-11.3284
▁prakso	-11.3284
▁igralko	-11.3289
▁zapleten	-11.3289
▁grožnjo	-11.329
▁prepovedanih	-11.329
zije	-11.3291
▁stekel	-11.3293
▁iv	-11.3293
▁rose	-11.3294
500	-11.3294
▁pazite	-11.3295
▁koncesij	-11.3295
▁današnjih	-11.3295
▁jožeta	-11.3295
▁trajekt	-11.3296
▁afganistan	-11.3296
▁smuku	-11.3298
▁iztok	-11.3299
▁potrdi	-11.3299
▁dnevih	-11.33
▁sodišč	-11.3302
▁pričakovanj	-11.3304
▁pp	-11.3305
▁imenovanju	-11.3306
▁šolstvo	-11.3306
▁klik	-11.3307
▁golu	-11.3308
▁pričakujem	-11.331
▁prijela	-11.3313
▁ropa	-11.3313
▁formo	-11.3315
▁domnevni	-11.3315
▁sporazumu	-11.3316
rgi	-11.3318
51	-11.3318
▁lokaciji	-11.3318
▁posveti	-11.3319
▁oskrbeli	-11.3319
▁najljubši	-11.3319
▁blagajne	-11.3319
▁boruta	-11.3322
▁najboljšimi	-11.3323
▁varen	-11.3323
▁eksperiment	-11.3324
▁zlo	-11.3324
▁presenečen	-11.3324
hot	-11.3325
▁mrk	-11.3325
mešča	-11.3327
▁dopustu	-11.3327
▁obsojeni	-11.3327
▁roberta	-11.3328
▁najmočnejši	-11.3331
▁nasploh	-11.3332
▁razpravlja	-11.3333
▁izjemna	-11.3334
▁zaslona	-11.3336
nin	-11.3337
▁bala	-11.3337
▁funkcija	-11.3338
▁sprejemljiv	-11.334
▁91	-11.334
▁uniform	-11.3341
jak	-11.3341
▁hujšanje	-11.3342
▁izpred	-11.3342
ston	-11.3344
▁mojster	-11.3347
▁ameriškim	-11.3348
▁rezi	-11.3348
▁konkretnih	-11.3348
eri	-11.3348
▁razkrit	-11.3349
▁krogov	-11.335
▁kilometra	-11.335
seveda	-11.335
▁musliman	-11.3351
▁vnos	-11.3352
1)	-11.3356
▁bivanja	-11.3356
▁hočejo	-11.3358
▁otroško	-11.3358
▁zavest	-11.3358
27	-11.3359
▁proizvodnja	-11.3359
▁žive	-11.336
evanju	-11.336
▁89	-11.3361
▁nastavi	-11.3361
▁poslabša	-11.3364
▁poročen	-11.3365
▁jezus	-11.3369
▁slabša	-11.3369
▁images	-11.3371
▁inšpektorji	-11.3371
▁bizjak	-11.3372
pal	-11.3375
▁ohranjanje	-11.3375
▁republiki	-11.3376
▁prizadevanja	-11.3378
▁vatikan	-11.3378
▁zunanjo	-11.3379
▁srb	-11.3379
▁diplomat	-11.3379
▁okrepljen	-11.3379
▁dobu	-11.338
▁zastonj	-11.338
▁ženskami	-11.338
▁avtorica	-11.3381
nove	-11.3382
▁ogledu	-11.3382
▁don	-11.3383
▁pomnilnika	-11.3383
obe	-11.3383
▁izvršil	-11.3383
▁cam	-11.3385
▁mariborska	-11.3386
yer	-11.3388
▁analitiki	-11.339
▁socialna	-11.3392
gl	-11.3394
▁kmetije	-11.3394
ey	-11.3395
▁galeriji	-11.3398
tim	-11.3401
▁obvoznici	-11.3402
▁srednjih	-11.3402
ngo	-11.3404
▁profesionalno	-11.3404
▁posebnimi	-11.3405
▁93	-11.3407
▁erik	-11.3408
▁kakršne	-11.3409
▁odkrit	-11.3411
▁plošč	-11.3411
▁regres	-11.3412
letnim	-11.3412
▁prepovedali	-11.3412
▁urednistvo	-11.3413
▁počitnic	-11.3413
▁končnici	-11.3413
▁prestaja	-11.3415
▁2012,	-11.3416
▁neprijetno	-11.3417
▁pričeli	-11.3417
vski	-11.3418
▁pomagamo	-11.3418
▁nalivi	-11.3419
▁veljala	-11.3419
mobil	-11.3419
▁world	-11.342
▁nagovoru	-11.3422
▁lokacijo	-11.3422
lika	-11.3423
▁1992	-11.3424
▁zamenjati	-11.3425
▁vulkan	-11.3425
▁obred	-11.3425
▁taborišč	-11.3425
▁obrazi	-11.3426
▁restavraciji	-11.3427
▁96	-11.3427
▁ex	-11.3427
▁slavila	-11.3427
▁zgrajen	-11.3428
▁vračajo	-11.3428
▁upokojencev	-11.3428
▁izdelka	-11.3429
▁potrjen	-11.3429
▁televizijske	-11.3429
rdi	-11.343
▁razpoložen	-11.343
▁sodnega	-11.3431
▁save	-11.3432
▁hidro	-11.3432
▁prehrani	-11.3434
▁narodno	-11.3434
54	-11.3435
▁podaljšal	-11.3436
▁vsakdo	-11.3436
▁nosilec	-11.3437
▁hla	-11.3438
▁zaklad	-11.3438
▁minulo	-11.3441
▁spa	-11.3441
▁piv	-11.3441
▁porabili	-11.3441
▁naznanil	-11.3444
nki	-11.3446
sam	-11.3446
▁plesa	-11.3448
▁hiv	-11.3448
▁izdaji	-11.3449
▁funkcij	-11.3449
▁komunikacijo	-11.345
▁kruha	-11.345
▁penis	-11.3451
▁inovacij	-11.3452
▁avstrijskem	-11.3452
▁junaki	-11.3452
▁osumljenec	-11.3452
▁predstavljati	-11.3453
▁dočakal	-11.3454
▁obsegu	-11.3455
▁zvezdnikov	-11.3455
▁kritiziral	-11.3457
vcev	-11.3458
▁stroka	-11.3458
▁prvimi	-11.3459
▁radan	-11.3459
▁oviran	-11.346
▁opozarjali	-11.3461
and	-11.3463
▁športna	-11.3464
▁solze	-11.3465
▁umaknili	-11.3466
▁soba	-11.3466
xx	-11.3467
▁regij	-11.3468
▁pošto	-11.347
▁izognili	-11.3471
▁testira	-11.3471
▁slišala	-11.3472
▁carl	-11.3473
▁prepričljiv	-11.3474
▁kajenje	-11.3476
▁upamo	-11.3479
ug	-11.348
▁pospremil	-11.348
ex	-11.3481
▁opravljali	-11.3481
▁konkurent	-11.3484
▁kolektiv	-11.3486
▁okvar	-11.3488
▁začuti	-11.3489
▁prečka	-11.3489
▁spe	-11.349
▁obvladuje	-11.349
▁pristopil	-11.3491
injo	-11.3491
▁določili	-11.3492
▁zviša	-11.3495
▁borisa	-11.3497
▁zbornica	-11.3497
77	-11.3497
▁intenzivne	-11.3497
▁sedežev	-11.3498
▁vojaškega	-11.3498
▁korej	-11.3499
▁prijazne	-11.35
lnice	-11.3503
▁dopolni	-11.3503
▁popi	-11.3504
ovala	-11.3504
▁manuel	-11.3506
▁varstvu	-11.3507
▁nogometnih	-11.3508
▁restavracije	-11.3509
▁vmesnik	-11.3511
▁aktivne	-11.3514
▁notranjih	-11.3515
▁revolucionar	-11.3516
▁četrta	-11.3516
▁štab	-11.3516
▁odškodnino	-11.3517
▁skupščine	-11.3518
▁zemlja	-11.352
▁ponudniki	-11.3522
▁zaplete	-11.3522
▁statistični	-11.3522
▁eksplozije	-11.3523
▁ds	-11.3524
jene	-11.3525
▁nijz	-11.3526
▁skladb	-11.3528
▁predčasnih	-11.3528
evati	-11.3528
▁izvajanju	-11.353
▁zaščititi	-11.353
▁nameček	-11.353
▁prste	-11.3531
▁petdeset	-11.3532
▁človeške	-11.3532
▁tehnika	-11.3534
bl	-11.3535
▁avtom	-11.3535
▁obdolžen	-11.3536
▁oškodoval	-11.3538
▁materin	-11.3538
▁obremenjen	-11.3539
▁programom	-11.3539
▁zapeljiv	-11.354
name	-11.354
▁kolesom	-11.3542
▁zaljubljen	-11.3543
▁domnevnega	-11.3544
▁zaključi	-11.3545
▁htc	-11.3546
▁španije	-11.3546
▁redne	-11.3547
▁mete	-11.3548
▁stojijo	-11.3548
▁sončne	-11.3549
▁solid	-11.3549
▁gorenjske	-11.3549
▁kralji	-11.355
▁).	-11.355
išč	-11.3551
▁namestili	-11.3551
▁teens	-11.3552
▁spis	-11.3552
▁transakcij	-11.3553
▁reševalne	-11.3553
▁razočarani	-11.3556
▁hitrih	-11.3556
▁dron	-11.3556
▁zaskrbljen	-11.3558
vide	-11.3559
▁petrovič	-11.3559
▁obremenitev	-11.356
29	-11.3561
▁izkazala	-11.3561
▁dl	-11.3562
▁gradbeni	-11.3563
▁zvez	-11.3563
▁helios	-11.3564
▁zabodel	-11.3564
▁izberite	-11.3566
▁hillary	-11.3567
▁emo	-11.3569
▁neznano	-11.357
▁preberete	-11.3571
▁zbrati	-11.3572
▁bosni	-11.3573
▁4000	-11.3573
▁posredovati	-11.3573
▁zadetka	-11.3574
▁najlepši	-11.3575
▁razgovor	-11.3576
▁podobe	-11.3581
▁ustreznih	-11.3582
▁lastnikom	-11.3583
▁jones	-11.3583
▁todorić	-11.3586
▁pit	-11.3586
▁ustanove	-11.3586
▁medij	-11.3587
▁podlaga	-11.3587
▁zaposlena	-11.3588
▁mile	-11.3589
▁spremstvu	-11.359
▁vprašala	-11.359
▁poslance	-11.3591
▁washingtonu	-11.3591
šak	-11.3593
▁gasil	-11.3595
▁počutila	-11.3595
▁zaposlenimi	-11.36
▁razloge	-11.3604
▁veber	-11.3606
▁bralka	-11.3609
▁muzikal	-11.361
▁razpravljali	-11.361
▁poročena	-11.3612
▁skladbe	-11.3613
▁utrip	-11.3613
▁pripravljeno	-11.3615
▁taksi	-11.3617
▁japonske	-11.3618
▁uporabnika	-11.3618
▁vzorce	-11.3619
▁dokumentacije	-11.3621
59	-11.3621
▁skupščina	-11.3622
▁registracij	-11.3622
▁povzel	-11.3623
▁bivše	-11.3623
▁gneča	-11.3624
▁poškodovane	-11.3624
misli	-11.3626
▁nagnjen	-11.3627
▁zlatko	-11.3628
dala	-11.3628
▁zelišč	-11.3629
bav	-11.363
▁12-	-11.3631
▁razp	-11.3632
hy	-11.3632
ene	-11.3633
viti	-11.3634
ovića	-11.3635
▁koloni	-11.3635
▁logar	-11.3635
▁volilnega	-11.3636
▁prepreči	-11.3636
▁počel	-11.3636
▁kač	-11.3637
▁zaslišanju	-11.3637
▁francoskih	-11.3638
▁nasprotujejo	-11.3638
▁lepih	-11.3639
▁dopolnila	-11.364
metri	-11.364
▁jazbec	-11.364
▁ujet	-11.364
▁dragan	-11.3642
▁neposredne	-11.3644
▁razveljavilo	-11.3644
▁popušča	-11.3646
▁slovesnost	-11.3646
▁odvetnika	-11.3648
▁giba	-11.3649
▁pogreša	-11.3649
▁igralke	-11.3651
▁avtobusa	-11.3651
▁preizkušnja	-11.3652
klenjen	-11.3652
▁belega	-11.3653
▁žurnal	-11.3654
meta	-11.3657
ljev	-11.3657
▁sodobno	-11.3658
▁mirni	-11.3658
art	-11.3659
▁mize	-11.3659
▁formalno	-11.366
▁sprehajal	-11.3661
▁jamnik	-11.3662
▁predstavitve	-11.3663
▁vremenoslovci	-11.3664
▁despot	-11.3664
▁enemu	-11.3667
▁dolžni	-11.3669
▁prispela	-11.3674
▁transparent	-11.3675
▁razsežnosti	-11.3677
cc	-11.3679
▁mesti	-11.3681
▁evropskim	-11.3682
▁izrekli	-11.3684
▁lewis	-11.3684
▁snemanju	-11.3685
▁narodne	-11.3686
cher	-11.3687
▁zaposlil	-11.3687
▁jezera	-11.3688
▁človeški	-11.3688
▁odgovoriti	-11.369
!!	-11.369
▁očital	-11.3694
▁besedila	-11.3695
▁uboja	-11.3696
pust	-11.3699
▁usodo	-11.37
:30	-11.3702
▁ugotovilo	-11.3706
▁snežne	-11.3707
▁slediti	-11.3708
▁povedo	-11.371
▁nizozemskem	-11.371
▁odkriti	-11.3711
▁matevž	-11.3712
▁krke	-11.3713
wn	-11.3713
▁vpleten	-11.3714
meseč	-11.3715
▁dovizioso	-11.3716
▁garancij	-11.3717
▁predhodni	-11.3718
▁bralci	-11.3718
iran	-11.3718
▁mačka	-11.3719
▁prireja	-11.3721
▁peru	-11.3721
▁filmske	-11.3721
▁dosedanjih	-11.3724
▁sumijo	-11.3724
▁poveže	-11.3724
▁odgovorne	-11.3726
▁podoba	-11.3727
▁napetost	-11.3727
▁lis	-11.3728
slika	-11.373
▁povezovanje	-11.3731
▁pogovarjala	-11.3732
▁lotila	-11.3733
▁pozitivnih	-11.3734
▁poraza	-11.3736
▁dirkači	-11.3738
▁nizkih	-11.3738
▁uravnava	-11.3739
▁vara	-11.374
▁sneženja	-11.3741
▁wall	-11.3742
▁tekmeci	-11.3743
▁ustvarjalci	-11.3746
škim	-11.3746
▁energetsko	-11.3747
▁kul	-11.3751
▁imenovanja	-11.3751
▁gostovanju	-11.3753
▁bančne	-11.3755
▁zapadlo	-11.3755
▁medijsko	-11.3756
▁modno	-11.3756
▁svetlobe	-11.3757
▁potnike	-11.3757
▁iskala	-11.3757
ona	-11.3758
▁začnemo	-11.3758
mili	-11.3759
▁izkaže	-11.3759
▁razne	-11.3761
▁sinov	-11.3763
pom	-11.3767
odgovor	-11.3767
▁zmagati	-11.3768
▁kmetijskih	-11.3772
▁dvojno	-11.3772
žnik	-11.3773
▁rk	-11.3774
▁silovit	-11.3775
▁zaostanek	-11.3775
▁razkrivajo	-11.3776
▁human	-11.3777
▁bolnišnica	-11.3778
bilo	-11.3779
▁gledalce	-11.3779
▁razlik	-11.378
▁vrhov	-11.3781
▁bloger	-11.3781
▁pričakovanju	-11.3782
mon	-11.3783
▁zamenjavo	-11.3784
▁vizijo	-11.3784
▁centri	-11.3784
▁kopra	-11.3786
▁prebiva	-11.3787
▁miller	-11.3788
ano	-11.3789
▁bledu	-11.379
▁objavljeni	-11.3791
▁boleče	-11.3792
▁vredne	-11.3793
▁razmislek	-11.3794
▁uravnotežen	-11.3795
▁navsezadnje	-11.3796
▁izhodišče	-11.3798
▁balkanski	-11.3798
▁zbirali	-11.3799
tivne	-11.3799
ime	-11.38
▁nasilju	-11.3801
rli	-11.3801
▁beckham	-11.3802
▁petelin	-11.3803
▁uresniči	-11.3804
▁poimenovan	-11.3805
▁proda	-11.3805
iro	-11.3806
▁koreje	-11.3806
▁zmagoval	-11.3807
graj	-11.3807
▁zamenjala	-11.381
pm	-11.3811
▁mlajših	-11.3814
▁njune	-11.3816
rasel	-11.3817
▁šalo	-11.3817
▁nasprotnika	-11.3818
rac	-11.3819
▁bistvo	-11.3821
▁smrtni	-11.3821
▁kopi	-11.3821
▁diete	-11.3822
▁neurja	-11.3823
▁čudovite	-11.3824
▁odstotne	-11.3825
▁akcij	-11.3825
▁letošnjih	-11.3825
▁agencij	-11.3828
▁negativni	-11.3829
▁tovornega	-11.3829
▁deležen	-11.383
44	-11.3832
▁marsikje	-11.3837
▁milijardo	-11.3839
▁twitterja	-11.384
▁gub	-11.3841
▁razpolaga	-11.3842
▁glasovnic	-11.3842
▁čutili	-11.3843
▁sedmo	-11.3843
▁čakala	-11.3843
▁spraševal	-11.3844
▁kombinacijo	-11.3844
▁prihrani	-11.3846
▁postavite	-11.3846
klic	-11.3848
▁povzročijo	-11.3849
▁letalskih	-11.385
▁oblikovanja	-11.3855
▁00	-11.3855
▁hudega	-11.3855
▁hormon	-11.3856
▁pločnik	-11.3858
vice	-11.3863
▁nastope	-11.3864
plača	-11.3865
▁razveselil	-11.3866
▁objavljena	-11.3867
anjem	-11.3867
▁prikazal	-11.3868
▁zagledal	-11.3868
▁upošteval	-11.387
▁uživala	-11.387
▁sproščeno	-11.3872
kah	-11.3872
▁izvir	-11.3873
▁današnjim	-11.3874
▁spodnje	-11.3874
▁odgovarjajo	-11.3876
▁rodi	-11.3877
▁britanijo	-11.3878
▁vrhunske	-11.3878
▁popular	-11.3879
▁utemeljen	-11.3879
▁vzemite	-11.388
▁tiskalnik	-11.3881
▁70.	-11.3881
▁murray	-11.3882
▁bombe	-11.3883
▁predpisi	-11.3884
▁tokratni	-11.3884
got	-11.3886
▁splošni	-11.3887
▁socialnega	-11.3887
▁povečano	-11.3888
▁končan	-11.3888
▁milanu	-11.3889
▁potniški	-11.3892
▁zdravih	-11.3892
▁cleveland	-11.3892
▁kolona	-11.3894
▁odkriva	-11.3896
▁belorusi	-11.3896
▁reševalcev	-11.3896
ika	-11.3897
▁cela	-11.3899
▁prehaja	-11.3899
▁trenutne	-11.3899
▁startu	-11.39
▁takem	-11.39
▁previdni	-11.3901
▁pobudnik	-11.3901
▁roj	-11.3901
▁anna	-11.3902
▁privlači	-11.3903
▁spremljanje	-11.3904
▁spadajo	-11.3904
▁pustimo	-11.3906
▁itak	-11.3907
▁konkurenca	-11.3907
▁epizod	-11.3907
▁studio	-11.3907
▁različici	-11.3908
▁kolajn	-11.3908
laj	-11.3908
▁košarkarske	-11.3908
▁vida	-11.3912
▁nosečnost	-11.3912
▁proizvajalcev	-11.3912
▁ankete	-11.3913
vite	-11.3913
▁bakterije	-11.3913
▁mnenj	-11.3915
▁dejstev	-11.3915
▁izpostavljeni	-11.3916
▁modeli	-11.3917
▁uvedla	-11.3917
vožen	-11.3918
▁izračuna	-11.3919
▁pomeril	-11.392
▁pogajal	-11.392
▁rekorder	-11.3921
▁izkorišča	-11.3922
);	-11.3923
▁oken	-11.3923
▁istočasno	-11.3923
jevanju	-11.3924
▁domačimi	-11.3926
▁kava	-11.3928
▁prepoznali	-11.393
▁notranja	-11.393
▁frizer	-11.393
▁potreb	-11.3932
▁varnostnega	-11.3932
▁daily	-11.3933
▁nogi	-11.3934
▁obnavlja	-11.3934
▁poskrbijo	-11.3935
▁škodljive	-11.3935
▁saint	-11.3936
▁učinkoviti	-11.3936
▁bitko	-11.3937
▁polnjenje	-11.3937
▁promocijo	-11.3938
▁prevzame	-11.394
▁mp	-11.3942
▁deževalo	-11.3944
▁strankami	-11.3945
▁oskarja	-11.3947
šla	-11.395
▁bell	-11.3951
▁pohval	-11.3951
▁očitkov	-11.3952
▁izstrelil	-11.3953
▁vztrajajo	-11.3955
▁programi	-11.3957
▁vozniškega	-11.3957
▁kliničnega	-11.3958
▁reli	-11.396
▁dajal	-11.396
▁italijansko	-11.3962
ike	-11.3962
rus	-11.3963
well	-11.3965
▁računu	-11.3966
▁plo	-11.3967
štvo	-11.3967
▁strasti	-11.3968
▁povabila	-11.3968
▁pogajalsk	-11.3968
▁(0:0)	-11.3969
▁poli	-11.3971
▁prizadevanj	-11.3972
najbolj	-11.3975
▁volanom	-11.3975
▁nisva	-11.3976
liva	-11.3978
▁bankomat	-11.3979
▁tribun	-11.3979
▁odpeljala	-11.3982
▁številk	-11.3982
▁.''	-11.3982
▁opozoriti	-11.3984
98	-11.3984
▁osvaja	-11.3985
▁stephen	-11.3986
▁brezposelnosti	-11.3986
▁jajc	-11.3986
▁babica	-11.3987
sku	-11.3988
▁povod	-11.3988
▁nakit	-11.3988
▁denarno	-11.3989
▁prestal	-11.3989
▁teroristične	-11.3989
▁centa	-11.399
▁srbska	-11.399
▁spraviti	-11.3992
▁ubiti	-11.3995
▁sneženje	-11.3996
52	-11.3997
▁snežni	-11.3998
▁parketu	-11.3998
▁rojstva	-11.4001
▁tavares	-11.4002
▁trditve	-11.4004
nz	-11.4005
▁sosednji	-11.4006
▁pobude	-11.4007
▁dodatka	-11.4009
▁vsakih	-11.4013
▁presenečeni	-11.4013
▁poravnal	-11.4013
▁opremljena	-11.4013
▁spraševali	-11.4016
▁vodilo	-11.4017
nić	-11.4018
▁suhe	-11.4019
▁štajerskem	-11.4021
▁oklep	-11.4022
▁sinom	-11.4022
▁primerni	-11.4023
▁mrtva	-11.4023
▁prepriča	-11.4023
▁helikopterjem	-11.4025
▁srčne	-11.4025
▁baterija	-11.4026
▁govorim	-11.4027
▁diet	-11.4027
▁aluminij	-11.4028
▁zahtevne	-11.4029
▁četrtine	-11.4029
▁navdušenje	-11.4029
▁gostitelj	-11.4029
▁uslužbencev	-11.403
▁prehiteva	-11.403
▁pritožbi	-11.403
▁ris	-11.4031
▁pogovarjati	-11.4031
▁pusto	-11.4032
▁sprejemajo	-11.4032
▁telesna	-11.4032
zakon	-11.4032
▁skale	-11.4033
▁1,8	-11.4035
▁čakamo	-11.4036
▁dnem	-11.4036
sar	-11.4037
▁pomenu	-11.4037
▁zaskrbljeni	-11.4038
▁usb	-11.404
▁genocid	-11.404
vajanje	-11.4042
▁skrivajo	-11.4042
▁hibrid	-11.4043
▁nižjo	-11.4043
▁funtov	-11.4045
▁92	-11.4046
▁delavcem	-11.4047
pozna	-11.4047
▁telesni	-11.4047
▁zaletel	-11.4048
▁podlage	-11.4048
▁popraviti	-11.4049
▁izvajalci	-11.4049
▁dosledno	-11.4051
▁počutil	-11.4052
▁eric	-11.4054
▁kakovostne	-11.4054
ziji	-11.4054
▁faktor	-11.4055
▁zaposluje	-11.4057
▁moštvu	-11.4057
▁rešen	-11.4057
▁prenehal	-11.406
▁monte	-11.406
▁pohištvo	-11.4061
dt	-11.4061
▁določila	-11.4061
▁lupi	-11.4063
▁smete	-11.4063
▁trumpove	-11.4064
▁sadež	-11.4064
▁urejeno	-11.4066
▁seznanili	-11.4066
▁dijakov	-11.4067
upam	-11.4067
▁nekakšen	-11.4067
▁listo	-11.4069
▁čestital	-11.4069
▁britanskih	-11.407
▁ach	-11.407
▁polona	-11.407
▁elektriko	-11.4071
▁smučarka	-11.4074
▁ureditve	-11.4075
▁prijavljen	-11.4076
▁skop	-11.4076
▁opravljati	-11.4076
▁350	-11.4077
▁zagorel	-11.4078
▁raznih	-11.4078
▁povzročili	-11.408
cijsko	-11.408
▁boljšega	-11.4082
▁hitrejše	-11.4082
▁spomine	-11.4082
▁0:0	-11.4083
▁počaka	-11.4084
▁finalni	-11.4085
▁minulega	-11.4086
pisana	-11.4089
▁osmimi	-11.409
▁klubski	-11.4093
▁bad	-11.4093
veliko	-11.4093
▁znižali	-11.4093
▁play	-11.4094
vije	-11.4096
▁predvideno	-11.4096
▁početi	-11.4097
▁izpusti	-11.4101
šno	-11.4101
▁manjšin	-11.4102
▁množice	-11.4103
▁industrijo	-11.4105
▁vrstni	-11.4106
▁jelen	-11.4106
▁ukrepanje	-11.4108
▁semena	-11.4111
▁našteva	-11.4111
▁nizozemska	-11.4111
slovenija	-11.4113
▁banan	-11.4113
▁obsodilo	-11.4113
▁zaprtih	-11.4117
▁vnetje	-11.4119
▁1995	-11.412
▁sestavljen	-11.4122
▁prekinitvi	-11.4122
▁mladoletnik	-11.4122
▁poskusite	-11.4123
▁navadni	-11.4125
▁derbiju	-11.4125
▁reševati	-11.4126
▁celotnem	-11.4126
▁stanovalci	-11.4128
▁fakulteta	-11.4128
ivni	-11.413
▁ant	-11.4131
▁videu	-11.4131
rite	-11.4131
▁boks	-11.4131
▁tesne	-11.4131
acij	-11.4132
▁nadaljnjega	-11.4134
▁kupce	-11.4134
▁rebeka	-11.4135
▁split	-11.4135
▁34-	-11.4136
▁1996	-11.4136
▁trebuhu	-11.4137
▁ministru	-11.4137
4)	-11.4139
▁izdelal	-11.414
▁taboru	-11.414
▁osmo	-11.4143
▁piko	-11.4147
▁fronta	-11.4148
▁britansko	-11.4149
▁police	-11.415
▁kril	-11.4151
▁magnet	-11.4152
▁ravne	-11.4153
▁soigralci	-11.4154
▁neviht	-11.4154
▁psihično	-11.4154
dobro	-11.4154
▁počakal	-11.4157
▁zaustavil	-11.4158
▁pogovora	-11.4159
▁jadral	-11.4159
▁boeing	-11.4161
dajal	-11.4161
▁zgodovinsko	-11.4162
▁prebivalstvo	-11.4162
▁razkrije	-11.4162
▁mreža	-11.4164
▁ozemlju	-11.4164
▁pozabljen	-11.4164
▁katanec	-11.4165
▁hladni	-11.4167
▁plesne	-11.4167
▁posredno	-11.4169
rini	-11.4169
▁raku	-11.4171
▁pošten	-11.4172
▁namestitev	-11.4174
▁pisalo	-11.4174
▁obleka	-11.4175
▁preračunanih	-11.4175
▁domnevnih	-11.4177
▁plešejo	-11.4177
▁lent	-11.4178
▁pridruži	-11.418
▁soočajo	-11.4181
▁pogrešanega	-11.4182
▁torka	-11.4183
▁zgornje	-11.4185
▁poslovalnic	-11.4185
leči	-11.4185
▁storjen	-11.4186
▁razmišljanja	-11.4189
jočo	-11.4189
▁krkovič	-11.4189
▁odpotoval	-11.419
▁2016,	-11.419
▁smučanju	-11.419
▁nepričakovan	-11.419
▁beton	-11.4192
▁uslužbenci	-11.4192
▁1,7	-11.4192
▁raznolik	-11.4193
▁opremi	-11.4194
štva	-11.4194
▁asistent	-11.4195
▁veljalo	-11.4196
▁tekači	-11.4197
▁oster	-11.4198
▁nastopal	-11.4199
▁klubom	-11.42
▁storilca	-11.4202
▁kampl	-11.4204
▁2018-05-1	-11.4205
▁vlakom	-11.4206
pira	-11.421
▁goriv	-11.4212
▁analizira	-11.4212
▁odbojka	-11.4212
▁razpored	-11.4213
▁novič	-11.4213
▁rebalans	-11.4215
▁uporabni	-11.4218
▁gledališču	-11.4219
▁flisar	-11.422
▁upoštevajo	-11.422
▁muzeja	-11.4221
▁povedano	-11.4222
▁namestitve	-11.4223
nte	-11.4224
▁seznanil	-11.4225
▁2018.	-11.4225
▁adut	-11.4225
▁režima	-11.4227
▁vrtov	-11.4228
▁razširi	-11.4228
▁adrenalin	-11.4229
▁kuhinja	-11.4229
▁predlogi	-11.423
▁priljubljeno	-11.423
▁ponuditi	-11.4232
▁okužen	-11.4234
▁mrzli	-11.4235
▁enotno	-11.4237
▁zavor	-11.4237
86	-11.4237
čite	-11.4239
tha	-11.4239
▁družbeni	-11.4239
▁gostila	-11.4242
▁označen	-11.4242
▁vzorcev	-11.4243
▁humanitarno	-11.4245
▁naleteli	-11.4246
▁hčeri	-11.4247
▁poljak	-11.4247
▁strop	-11.4248
▁neprestano	-11.4252
▁zasedanju	-11.4253
▁pomor	-11.4256
▁zahtevna	-11.4256
▁ptič	-11.4257
▁veri	-11.4258
tiki	-11.4259
▁počivalšek	-11.4259
▁strelov	-11.426
▁odkritje	-11.426
lili	-11.4261
▁ocenjen	-11.4262
▁promovira	-11.4262
▁furlan	-11.4263
▁fizik	-11.4263
▁globalno	-11.4264
▁teroristi	-11.4265
mol	-11.4265
▁strinjal	-11.4266
▁odvzel	-11.4267
▁komunikacija	-11.4267
▁treningih	-11.4267
▁prašič	-11.4268
▁sestavo	-11.4269
▁perspektiv	-11.427
▁golo	-11.4271
▁atleti	-11.4271
▁hodijo	-11.4271
▁cilju	-11.4272
▁grošelj	-11.4273
▁prijavili	-11.4273
▁kuharski	-11.4275
▁doline	-11.4277
▁splav	-11.4277
66	-11.4278
▁170	-11.4278
bur	-11.4278
▁reza	-11.4279
▁organiziran	-11.4279
▁počutili	-11.4279
▁markle	-11.428
▁uvedbi	-11.4284
▁dame	-11.4284
▁koalicijskih	-11.4285
▁obrnili	-11.4286
▁korakov	-11.4286
▁prvoligaš	-11.4287
▁pričakovani	-11.4287
peljav	-11.4287
▁kokaina	-11.4288
▁samski	-11.4289
▁poudarek	-11.429
▁separatisti	-11.429
▁končani	-11.4291
▁skupinah	-11.4291
▁namenja	-11.4293
▁naučila	-11.4293
rskem	-11.4293
▁izzivov	-11.4295
▁odstrani	-11.4296
▁prostovoljci	-11.4297
48	-11.4297
▁pridobivanje	-11.4297
▁menja	-11.4297
▁bruslja	-11.4297
▁umaknila	-11.4298
▁dobrodošli	-11.4299
▁ostanke	-11.4303
▁ekonomski	-11.4304
▁bodoči	-11.4305
▁obtičal	-11.4306
▁šolskega	-11.4308
▁30.000	-11.4308
▁fizični	-11.4309
▁položaje	-11.4309
▁razveselila	-11.4311
▁ved	-11.4311
▁umirja	-11.4312
▁zgodnje	-11.4312
▁seznanjen	-11.4313
▁sap	-11.4313
▁priporočila	-11.4314
▁izbrana	-11.4315
▁zl	-11.4316
▁migracije	-11.4318
bud	-11.4319
▁sorodnik	-11.4319
▁metode	-11.432
▁temno	-11.432
▁dandanes	-11.432
▁odigra	-11.432
▁jakob	-11.4321
▁vzdrževal	-11.4322
▁zdravko	-11.4323
▁domovih	-11.4324
▁slučajno	-11.4324
▁stranišč	-11.4326
▁pazi	-11.4326
▁sliki	-11.4327
▁zastopnik	-11.4327
▁vidne	-11.4328
▁teles	-11.4328
▁očetom	-11.4328
▁delijo	-11.4329
▁zahoda	-11.4329
▁grd	-11.4329
▁münchen	-11.4329
▁odnesla	-11.4329
▁prilagodi	-11.4329
▁kolen	-11.4331
riti	-11.4331
▁smisla	-11.4331
▁hse	-11.4332
▁poslovanju	-11.4334
▁hišnih	-11.4334
▁bitka	-11.4335
▁razočaranje	-11.4336
▁slavje	-11.4336
▁gzs	-11.4337
▁hlač	-11.4337
▁klimatsk	-11.4338
dlo	-11.434
▁določenem	-11.4341
ding	-11.4346
lc	-11.4347
▁pogoste	-11.4347
▁psihiatri	-11.4347
▁nesrečah	-11.4348
▁mine	-11.435
▁masa	-11.4352
▁današnja	-11.4353
▁kose	-11.4354
čišče	-11.4354
▁otroštva	-11.4355
▁izjemni	-11.4358
▁premislil	-11.4358
jska	-11.436
▁zgradil	-11.436
▁očal	-11.4361
▁pasov	-11.4361
▁pregona	-11.4361
ivno	-11.4362
▁delnico	-11.4362
▁zbudi	-11.4362
▁potresa	-11.4363
rada	-11.4363
▁fokus	-11.4364
▁natakar	-11.4365
▁širšem	-11.4365
▁kartic	-11.4366
▁raper	-11.4366
▁moke	-11.4367
▁šoštanj	-11.4368
▁slavili	-11.4368
▁vujović	-11.4368
▁ošpic	-11.4368
▁skuha	-11.4368
89	-11.437
▁prispevala	-11.437
▁morski	-11.4372
▁nakupom	-11.4372
▁čistega	-11.4372
▁žit	-11.4372
▁ambasador	-11.4374
▁predhodnik	-11.4375
▁prijavila	-11.4376
▁umiri	-11.4378
▁nasilni	-11.4379
▁podari	-11.438
▁(14	-11.438
▁naletel	-11.438
▁vodilna	-11.438
▁1997	-11.4382
▁izziva	-11.4383
▁vidik	-11.4383
▁siri	-11.4383
rma	-11.4384
▁lastnike	-11.4385
▁veščin	-11.4386
▁sekundah	-11.4387
▁vajin	-11.4387
▁desetletju	-11.4387
▁georg	-11.4388
▁čigar	-11.4388
▁kavi	-11.4388
▁natančne	-11.4391
mann	-11.4394
▁sponzor	-11.4394
▁portorožu	-11.4394
▁kreme	-11.4395
▁preproste	-11.4395
▁resda	-11.4396
▁poročanje	-11.4396
▁strežnik	-11.4396
▁zavarovalni	-11.4397
▁vprašljiv	-11.4398
▁dnu	-11.4399
▁kandidature	-11.4399
▁palači	-11.44
▁zdravnica	-11.44
▁pogovarjal	-11.44
▁prepoznavnost	-11.44
=	-11.4401
▁okusa	-11.4403
▁nehal	-11.4404
▁pepel	-11.4406
kos	-11.4406
▁predsednice	-11.4407
▁reševali	-11.4407
▁preseže	-11.4409
▁loka	-11.441
▁cenejši	-11.441
▁(1:0)	-11.4411
tter	-11.4411
31	-11.4412
▁prijel	-11.4413
▁proga	-11.4415
▁jakov	-11.4416
7.000	-11.4419
▁značaj	-11.4422
64	-11.4423
▁povezav	-11.4424
▁televizor	-11.4424
▁meščan	-11.4426
▁uporabljate	-11.4426
▁velikana	-11.4427
▁vključili	-11.443
▁zaposlitvi	-11.4432
▁nasledil	-11.4432
čevanju	-11.4432
▁nezakonit	-11.4433
▁zasledoval	-11.4433
▁vzklik	-11.4434
zil	-11.4435
▁80.	-11.4436
▁brit	-11.4437
▁poslovna	-11.4437
▁prešernov	-11.4439
▁cimos	-11.444
▁poslovnem	-11.444
tki	-11.444
▁(8	-11.4441
tik	-11.4442
▁umakne	-11.4444
▁telefonom	-11.4444
▁vesolje	-11.4444
▁menite	-11.4445
▁reprezentančni	-11.4446
cij	-11.4447
kop	-11.4447
▁avtorja	-11.4447
▁trajno	-11.4448
▁airlines	-11.4448
▁proizvaja	-11.4452
▁vijoličasti	-11.4453
▁stavbi	-11.4454
▁dolino	-11.4455
▁gimnazij	-11.4455
▁kad	-11.4455
▁verjel	-11.4456
▁romun	-11.4456
▁patent	-11.4457
▁napreduje	-11.4458
▁btc	-11.4459
▁uporabila	-11.4461
▁strokovnega	-11.4462
njen	-11.4466
▁ema	-11.4466
▁rane	-11.4469
▁oliver	-11.4469
▁škr	-11.4471
▁linije	-11.4473
▁načela	-11.4476
▁zaseden	-11.4478
far	-11.4478
▁drev	-11.4479
▁vlaka	-11.4479
▁strinjam	-11.4481
▁prečkal	-11.4481
▁novinarje	-11.4482
▁postajajo	-11.4483
▁nadaljnjo	-11.4485
▁avsenik	-11.4486
▁prihodke	-11.4487
▁dolžnost	-11.4487
▁riba	-11.4487
▁uvodoma	-11.4488
▁brazilski	-11.4489
▁institut	-11.449
▁michaela	-11.4492
▁zadrževal	-11.4494
▁hvali	-11.4494
bljen	-11.4495
▁žled	-11.4495
▁spravili	-11.4496
▁vzpostavili	-11.4498
jenih	-11.4498
▁vstopila	-11.4499
▁izhodišč	-11.4502
▁ognjemet	-11.4503
▁vzgoji	-11.4504
▁dejanju	-11.4505
▁plačilu	-11.4506
ong	-11.4508
▁boleznimi	-11.4508
ada	-11.4509
▁bankah	-11.4513
▁medalje	-11.4513
▁(6	-11.4515
▁pep	-11.4516
šku	-11.4518
dent	-11.452
▁pdt	-11.452
▁čakalnih	-11.4521
▁prsti	-11.4522
▁užitek	-11.4523
▁surovin	-11.4523
▁heat	-11.4524
▁počeli	-11.4525
▁prenovi	-11.4526
▁manjkalo	-11.4527
▁kolesarje	-11.4527
▁certifikat	-11.4527
▁identitete	-11.4531
žgal	-11.4532
▁sinu	-11.4532
▁latin	-11.4537
▁mura	-11.4538
▁ferrari	-11.4538
▁stvareh	-11.4539
▁rafael	-11.454
▁podnebne	-11.454
▁imenovano	-11.4541
▁opozori	-11.4541
▁razdelili	-11.4541
▁koreograf	-11.4542
▁kmetijske	-11.4542
▁stezi	-11.4542
▁farm	-11.4547
▁lenovo	-11.4547
▁osme	-11.4548
▁sisteme	-11.4548
▁900	-11.4548
▁50.	-11.4551
▁nadomestilo	-11.4552
▁odpadki	-11.4552
▁izboljšuje	-11.4553
▁pivovar	-11.4554
▁urugvaj	-11.4556
rast	-11.4557
▁čustveni	-11.4557
▁vzgaja	-11.4558
nas	-11.4558
▁svetle	-11.4559
▁turneji	-11.456
▁dna	-11.4563
▁mejnik	-11.4565
▁kraljeve	-11.4565
▁polom	-11.4567
▁pozira	-11.4567
▁af	-11.4567
klja	-11.4568
▁suzana	-11.4569
dis	-11.457
▁razočaral	-11.4572
▁gros	-11.4573
▁udobno	-11.4574
▁naporno	-11.4575
▁čista	-11.4575
▁lg	-11.4576
▁pričakovanjih	-11.458
▁dolgoročne	-11.4581
▁novinarsko	-11.4581
▁napadla	-11.4582
vke	-11.4582
▁iskri	-11.4582
▁fal	-11.4584
▁dovoljenj	-11.4584
▁pooblastila	-11.4584
▁ang	-11.4588
▁spanec	-11.4589
▁vpleteni	-11.459
▁hollywood	-11.4592
▁avtorji	-11.4593
▁občinske	-11.4594
▁solidarnosti	-11.4597
▁princesa	-11.4597
▁zaprti	-11.4597
▁pip	-11.4597
▁bencinski	-11.4597
▁jenner	-11.4598
▁cerarju	-11.4599
:12	-11.46
▁zabeležil	-11.46
▁logično	-11.4601
▁bivšega	-11.4602
▁radgoni	-11.4602
▁bolnikom	-11.4603
▁največjem	-11.4607
▁obravnavajo	-11.4607
▁soglasno	-11.4607
▁povračil	-11.4609
▁peta	-11.4612
▁nespremenjen	-11.4613
▁odvisen	-11.4613
▁ptic	-11.4613
▁mehur	-11.4614
▁slovenskemu	-11.4614
▁opisala	-11.4616
▁stric	-11.4616
▁dejanji	-11.4617
▁štajerske	-11.4617
▁naslednik	-11.4618
▁proruski	-11.4618
▁živim	-11.4618
▁prijetne	-11.4619
▁nameraval	-11.4619
▁pacient	-11.4621
▁praznike	-11.4622
▁mis	-11.4624
ile	-11.4624
▁zdrs	-11.4624
▁drogo	-11.4624
▁grozljiv	-11.4627
▁švica	-11.4629
vanjem	-11.4629
▁ljudske	-11.4629
dova	-11.4629
▁levičar	-11.4631
▁postavljajo	-11.4631
▁osvoji	-11.4632
▁oddaj	-11.4633
▁swift	-11.4633
▁telemach	-11.4633
▁rival	-11.4633
▁zatrjuje	-11.4633
▁borze	-11.4635
▁lin	-11.4635
▁postopkom	-11.4635
▁gostovanje	-11.4637
▁plačani	-11.4638
▁plačujejo	-11.4639
▁ohranil	-11.4639
▁kajne	-11.4641
▁reformo	-11.4641
▁celem	-11.4642
▁tehnološki	-11.4642
.“	-11.4643
▁gorah	-11.4645
▁zaporednih	-11.4646
▁približal	-11.4647
▁diamant	-11.4647
▁zasedla	-11.4647
▁večjim	-11.4647
▁ogrožena	-11.4652
▁cepi	-11.4653
▁ozemlje	-11.4653
▁američanka	-11.4653
▁stečajni	-11.4654
▁zakonito	-11.4656
▁ryan	-11.4658
▁vplival	-11.4658
▁podjetniki	-11.466
▁razumljivo	-11.4662
▁sosedje	-11.4664
▁presoja	-11.4665
▁dečkov	-11.4665
▁dviguje	-11.4665
▁železa	-11.4666
▁štirinajst	-11.4667
▁polnem	-11.4667
cho	-11.4667
▁zelenjava	-11.4668
▁prevrnil	-11.4668
▁prizadela	-11.4669
▁aha	-11.4669
▁znanstveno	-11.4671
▁zimsko	-11.4672
▁deska	-11.4673
▁zd	-11.4673
▁britanci	-11.4673
▁sklicuje	-11.4675
▁varovanja	-11.4676
▁gospodarskem	-11.4678
▁oblikuje	-11.4679
pak	-11.468
▁dev	-11.468
▁slavnih	-11.4681
▁zgodnjih	-11.4681
▁objavljamo	-11.4682
▁zmogljivost	-11.4683
▁urejanje	-11.4684
▁plast	-11.4684
▁dodano	-11.4684
▁ocenjeval	-11.4687
▁prodajne	-11.4687
▁odsotnost	-11.4687
▁hal	-11.4689
▁zobozdravnik	-11.4689
▁preventivno	-11.4689
▁iskan	-11.4689
▁brezplačni	-11.469
▁gašpar	-11.469
▁6:2	-11.4692
▁projekcij	-11.4693
▁proračunu	-11.4694
rine	-11.4695
▁prilagoditi	-11.4696
▁širjenje	-11.4696
▁radar	-11.4698
▁smučar	-11.4698
▁ogorčen	-11.4701
▁ronalda	-11.4706
▁znatno	-11.4709
▁gašperšič	-11.471
▁predstavljen	-11.471
▁teža	-11.471
▁peri	-11.4712
▁prodajnih	-11.4714
▁viol	-11.4715
jezi	-11.4715
▁christian	-11.4716
.''	-11.4716
▁nadomestil	-11.4717
ity	-11.4718
▁stojnic	-11.4721
▁kategorije	-11.4722
▁čustvene	-11.4723
▁predvidene	-11.4723
▁ari	-11.4723
▁ubila	-11.4726
▁primerjavo	-11.4726
▁guardian	-11.4727
▁detajl	-11.4727
▁zahodno	-11.4728
▁pozdravlja	-11.4729
▁tednik	-11.4729
▁zbiranja	-11.4729
▁lahka	-11.4731
gol	-11.4734
▁trge	-11.4735
▁protestov	-11.4735
▁vsakim	-11.4736
▁terorizma	-11.4736
▁ustvarjen	-11.4736
▁zaljubljena	-11.4736
▁groženj	-11.4736
▁panog	-11.4736
▁pesmijo	-11.4736
▁domnevne	-11.4737
▁kriterij	-11.474
▁računsko	-11.4741
▁puigdemont	-11.4743
▁ljudstva	-11.4743
▁besedil	-11.4744
▁charlotte	-11.4747
▁trudijo	-11.4747
▁privoščil	-11.4747
▁(18	-11.4748
▁dnk	-11.475
▁posvaril	-11.4754
▁dražji	-11.4755
▁sedmimi	-11.4756
nemo	-11.4756
kalo	-11.4756
▁tekmovanj	-11.4757
stein	-11.4758
▁pisarne	-11.4758
▁prostovoljno	-11.4758
▁prtljažnik	-11.4764
▁videa	-11.4765
▁raziskovanje	-11.4765
▁obsežne	-11.4765
▁priznani	-11.4765
▁okoljske	-11.4765
tira	-11.4767
▁delavca	-11.4767
▁gozdov	-11.4768
▁morebiti	-11.477
▁označila	-11.477
▁osvojiti	-11.4772
▁lavrov	-11.4772
▁masaž	-11.4773
▁robin	-11.4774
▁odseku	-11.4774
▁občinskega	-11.4774
▁življenjem	-11.4775
▁prejšnjem	-11.4778
▁lj	-11.4779
manj	-11.478
▁elementi	-11.478
▁oskarjev	-11.4781
▁okrepila	-11.4782
▁poiskal	-11.4785
▁prebivalcem	-11.4785
▁doneck	-11.4785
▁drzni	-11.4785
▁svoboda	-11.4785
▁migrant	-11.4786
▁0,5	-11.4786
▁cre	-11.4786
▁fotografiral	-11.4787
▁tiru	-11.4789
plesal	-11.479
▁posredovala	-11.479
▁ruskim	-11.479
▁080	-11.479
▁hd	-11.4791
▁udaru	-11.4791
53	-11.4794
▁udeležence	-11.4794
▁kai	-11.4796
▁razmišljali	-11.4797
▁milanič	-11.4797
▁predsednikov	-11.4798
ich	-11.4799
▁aktivna	-11.48
▁pokrovitelj	-11.4801
▁tatvin	-11.4802
alnega	-11.4803
▁pobira	-11.4804
ip	-11.4804
▁odpornost	-11.4805
▁prisotnosti	-11.4805
▁mobil	-11.4805
▁uvrščen	-11.4806
▁namesti	-11.4807
▁bogdan	-11.4808
▁otroških	-11.4809
▁zanesljiv	-11.481
▁pravih	-11.4811
▁samim	-11.4815
▁lažne	-11.4817
▁privoščila	-11.4817
▁zabavne	-11.4818
▁resen	-11.4819
▁izpolnjuje	-11.482
▁pozdravi	-11.4822
▁sodniku	-11.4822
:25	-11.4823
▁pričakovanje	-11.4823
▁odškodnin	-11.4824
▁shi	-11.4826
▁bremeni	-11.4828
▁suš	-11.4828
▁truda	-11.4828
▁mineva	-11.4829
▁ujame	-11.4829
▁tebe	-11.4829
▁boriti	-11.4829
▁ukvarjal	-11.4831
▁šibka	-11.4833
▁ponos	-11.4833
[...]
